<unk>	0
<s>	0
</s>	0
.	-3.27386
▁	-3.5797
..	-4.20883
...	-4.45795
▁영화	-4.4822
의	-4.7108
,	-4.73641
이	-4.83109
도	-4.92963
는	-4.94275
가	-4.95141
을	-5.10798
?	-5.14464
에	-5.29846
은	-5.38641
▁너무	-5.39654
!	-5.42984
▁정말	-5.49311
고	-5.50051
를	-5.59316
다	-5.60123
▁이	-5.67633
▁진짜	-5.71573
지	-5.77323
~	-5.78085
만	-5.79954
로	-5.96278
한	-5.9734
게	-6.07475
과	-6.09572
나	-6.09748
점	-6.16006
영화	-6.23123
!!	-6.25463
▁왜	-6.25698
▁1	-6.25896
▁더	-6.27332
▁잘	-6.27573
▁그	-6.31658
▁이런	-6.31716
▁다	-6.34991
▁수	-6.35358
으로	-6.37086
▁그냥	-6.37727
....	-6.41462
와	-6.45446
에서	-6.48131
하고	-6.50297
▁10	-6.52909
▁안	-6.55988
▁아	-6.56257
▁보고	-6.60142
▁영화를	-6.62322
라	-6.6251
▁본	-6.62525
인	-6.6338
▁좀	-6.64415
▁드라마	-6.65675
▁평점	-6.66715
서	-6.68405
네	-6.71964
요	-6.74363
▁연기	-6.74684
기	-6.74763
▁내	-6.78669
▁ᄏᄏ	-6.79221
▁봤는데	-6.79846
▁영화가	-6.79911
▁영화는	-6.80477
하는	-6.81706
▁최고의	-6.82811
▁참	-6.83712
들	-6.83861
▁이거	-6.84051
▁내가	-6.84423
▁없는	-6.85464
▁완전	-6.85836
아	-6.86362
▁없다	-6.89243
▁한	-6.89414
▁쓰레기	-6.89924
▁이건	-6.90131
▁스토리	-6.9282
!!!	-6.93548
▁좋은	-6.94502
거	-6.94534
해	-6.95154
▁최고	-6.95265
어	-6.95686
ᄏᄏ	-6.96126
면	-6.97133
▁있는	-6.97884
▁이렇게	-6.982
▁2	-6.98908
야	-6.99885
▁3	-7.01201
▁이게	-7.01926
▁보는	-7.03156
▁다시	-7.03407
보다	-7.05694
자	-7.05885
네요	-7.07257
▁많이	-7.10627
▁평점이	-7.10637
^^	-7.11341
▁난	-7.11613
▁것	-7.11906
ᄏ	-7.13068
지만	-7.13148
이다	-7.16617
▁역시	-7.16645
▁그리고	-7.1795
~~	-7.18123
까지	-7.18464
수	-7.20894
리	-7.21819
대	-7.22817
니	-7.24211
임	-7.26463
▁뭐	-7.27212
▁재밌게	-7.27521
▁또	-7.2786
??	-7.27988
▁하는	-7.28391
해서	-7.29651
랑	-7.3077
일	-7.30992
건	-7.31447
'	-7.31543
;;	-7.32041
듯	-7.3332
▁못	-7.33631
▁작품	-7.33899
▁없고	-7.33907
▁넘	-7.34039
▁개	-7.34177
데	-7.34525
▁아깝다	-7.34618
▁마지막	-7.34863
▁ᄏᄏᄏ	-7.35603
들이	-7.36545
진	-7.37492
진짜	-7.37586
▁꼭	-7.37776
1	-7.3858
▁가장	-7.38754
▁재미	-7.40092
▁볼	-7.40217
할	-7.40889
▁보면	-7.41042
하게	-7.41766
)	-7.42207
▁무슨	-7.4315
▁별로	-7.43353
함	-7.43463
인데	-7.43687
구	-7.44647
여	-7.44796
냐	-7.45688
ᅲᅲ	-7.45797
년	-7.48793
음	-7.48869
▁감동	-7.49195
사	-7.50351
안	-7.51047
▁감독	-7.51472
보고	-7.51955
시	-7.52263
는데	-7.52308
▁지금	-7.52617
▁ᄏ	-7.53348
스	-7.53876
ᄏᄏᄏ	-7.54167
▁별	-7.54292
▁하나	-7.54344
2	-7.55062
▁만든	-7.55545
▁영화다	-7.55559
▁ᅲᅲ	-7.56399
▁중	-7.56742
던	-7.5676
▁같은	-7.57666
▁다른	-7.58567
;	-7.59194
하다	-7.59537
▁'	-7.59678
▁이야기	-7.59795
ᅲ	-7.60101
같은	-7.60292
▁끝까지	-7.61649
너무	-7.61727
라고	-7.61902
중	-7.61914
▁전	-7.62921
좀	-7.63081
▁나	-7.64063
▁ᅳᅳ	-7.65198
하	-7.65479
▁액션	-7.65548
급	-7.65561
▁솔직히	-7.66108
적	-7.66187
주	-7.66238
▁하지만	-7.66341
정말	-7.66572
▁할	-7.67163
라는	-7.67455
▁명작	-7.67511
▁시간	-7.68431
미	-7.68603
▁좋다	-7.68933
▁같다	-7.68947
▁대한	-7.69473
▁전혀	-7.7012
▁말이	-7.70379
이나	-7.70462
▁있다	-7.71014
▁와	-7.71107
처럼	-7.7119
입니다	-7.71298
▁말	-7.71616
▁느낌	-7.72073
(	-7.7247
개	-7.73022
▁아주	-7.73355
용	-7.73687
▁봐도	-7.73904
▁뭔가	-7.75687
▁ᄒᄒ	-7.7637
▁연출	-7.77628
내	-7.78553
▁내용	-7.78874
▁많은	-7.79583
▁저	-7.79878
▁재밌다	-7.80042
ᅳᅳ	-7.80061
▁굿	-7.80872
▁내내	-7.8094
때문에	-7.81112
했다	-7.8123
부터	-7.81318
▁한국	-7.81419
▁처음	-7.8143
오	-7.82051
세	-7.82227
▁봤다	-7.82254
것	-7.82255
▁재미있게	-7.82785
하지	-7.83004
인지	-7.83449
▁배우	-7.83456
▁않고	-7.83483
그	-7.83711
3	-7.83784
▁어떻게	-7.83874
▁오	-7.84071
▁최악의	-7.84209
치	-7.84513
▁하고	-7.84534
우	-7.84693
분	-7.8486
전	-7.85322
씨	-7.85402
드	-7.85606
상	-7.86207
▁계속	-7.86425
▁때	-7.8662
질	-7.86808
보	-7.87283
신	-7.87327
된	-7.87438
인가	-7.87504
▁내용이	-7.8762
▁모두	-7.8794
에게	-7.88465
,,	-7.8856
▁그래도	-7.88603
▁이걸	-7.88809
마	-7.88949
▁짱	-7.90035
적인	-7.90343
▁재미없다	-7.90456
▁듯	-7.91336
▁아니다	-7.91421
-	-7.92282
걸	-7.92421
▁아니라	-7.92512
▁연기가	-7.93101
▁모든	-7.93599
▁나오는	-7.93742
정	-7.93823
▁생각	-7.94023
란	-7.94383
▁4	-7.94449
▁딱	-7.94712
한다	-7.94827
▁한번	-7.95134
▁제일	-7.95422
▁사랑	-7.95485
▁배우들	-7.9585
▁아닌	-7.96043
때	-7.96534
▁근데	-7.96796
드라마	-7.96949
▁줄	-7.96971
▁아름다운	-7.97024
점도	-7.97058
▁두	-7.97332
▁않은	-7.9747
▁5	-7.97615
▁하	-7.97966
▁최악	-7.98141
▁일본	-7.98161
▁나는	-7.98703
▁대박	-7.98869
▁연기도	-7.98881
편	-7.99083
▁아니	-7.99132
더	-7.99179
군	-7.99664
▁돈	-8.00049
장	-8.00187
▁제대로	-8.00561
▁7	-8.00988
▁보다가	-8.01005
▁만드는	-8.01202
▁이영화	-8.01307
▁코미디	-8.0137
▁스토리가	-8.01524
ᄒᄒ	-8.01835
부	-8.01921
비	-8.02065
▁감독이	-8.02106
▁않는	-8.02334
▁그런	-8.02913
있는	-8.03158
▁거	-8.03212
▁아니고	-8.03879
▁여자	-8.03906
▁내용도	-8.04029
원	-8.04818
▁OO	-8.05154
성	-8.05267
화	-8.055
소	-8.05664
▁주인공	-8.05945
이랑	-8.0699
말	-8.07178
▁싶다	-8.07199
▁지	-8.07246
▁영화의	-8.08253
▁영화라고	-8.08501
▁때문에	-8.08605
하면	-8.08651
▁0	-8.09099
▁시간이	-8.10234
▁보기	-8.10417
▁아직도	-8.10478
▁사람	-8.10694
▁보다	-8.11011
히	-8.11164
없는	-8.11182
~~~	-8.11571
이라	-8.11856
들의	-8.11876
년대	-8.11917
긴	-8.12257
하지만	-8.12416
▁차라리	-8.12459
당	-8.12464
▁절대	-8.12598
▁요즘	-8.12743
▁재미도	-8.1292
물	-8.13187
▁재밌어요	-8.13436
▁나름	-8.13437
▁스릴러	-8.13666
선	-8.13867
류	-8.13898
▁영화입니다	-8.14104
▁8	-8.14132
▁좋았다	-8.14232
이라는	-8.1432
▁특히	-8.14546
했던	-8.14965
▁여운이	-8.15014
▁걍	-8.15021
▁아까운	-8.15208
▁도대체	-8.15413
▁진심	-8.15487
면서	-8.15508
▁엄청	-8.15911
연기	-8.16051
줄	-8.1621
습니다	-8.16239
ᄒ	-8.1645
며	-8.16521
▁스토리도	-8.16603
두	-8.16803
없이	-8.16858
▁주	-8.16912
▁이상	-8.17351
▁나도	-8.17351
▁인생	-8.17457
조	-8.17609
""""	-8.17739
▁감독의	-8.1783
▁오랜만에	-8.18094
엔	-8.18251
▁마지막에	-8.18808
▁제	-8.19304
▁보면서	-8.19401
▁조금	-8.19787
점은	-8.19816
▁주는	-8.199
ᅳ	-8.19909
▁기대	-8.20198
▁영화에	-8.20237
▁수준	-8.2053
▁이제	-8.20559
구나	-8.20614
시간	-8.20838
길	-8.20904
잘	-8.21091
!!!!	-8.21289
▁없음	-8.21318
▁되는	-8.21629
▁봤습니다	-8.21999
명	-8.22295
▁ᄏᄏᄏᄏ	-8.22307
▁좋고	-8.2238
▁좋아하는	-8.22413
본	-8.22488
한테	-8.22974
유	-8.23001
려	-8.23085
트	-8.23275
▁우리	-8.23427
단	-8.23471
죠	-8.23479
봤는데	-8.24044
이란	-8.24075
▁사	-8.24119
▁일	-8.24145
남	-8.24452
들은	-8.24455
살	-8.24606
▁뻔한	-8.24638
▁지루하고	-8.24909
▁OOO	-8.25015
▁전개	-8.25063
▁생각이	-8.26178
▁이해가	-8.26248
▁어떤	-8.26372
보면	-8.26501
▁멋진	-8.26605
▁없이	-8.26773
10	-8.27064
▁남는	-8.27096
▁^^	-8.27478
▁반전	-8.2813
▁공포	-8.28204
▁해	-8.28414
제	-8.28695
▁사람이	-8.28696
▁ᅲ	-8.2872
ᅮᅮ	-8.28815
영	-8.28837
▁최고다	-8.28961
♥	-8.29183
하나	-8.29643
▁애니	-8.2971
▁배우들의	-8.29748
난	-8.30057
???	-8.30392
▁개인적으로	-8.30475
▁장면	-8.30683
라도	-8.31139
▁보는내내	-8.31228
짱	-8.3125
▁알	-8.31256
▁막장	-8.31737
▁얼마나	-8.32349
▁뭘	-8.32467
▁반	-8.32486
▁9	-8.32498
합니다	-8.32521
▁남자	-8.32614
▁결말	-8.32622
▁싶은	-8.32644
▁봤던	-8.32694
▁보세요	-8.32699
▁지루한	-8.33517
▁추천	-8.33588
동	-8.33609
왜	-8.33692
▁그저	-8.33719
그냥	-8.33768
▁재미가	-8.33899
▁20	-8.33935
▁B	-8.34137
▁함께	-8.34237
▁건	-8.34265
▁실망	-8.34503
까	-8.35145
▁큰	-8.35319
▁후	-8.35323
▁대	-8.35463
▁재밌는	-8.35614
,,,	-8.35636
되는	-8.35711
점이	-8.35874
▁"""	-8.35913
▁안되는	-8.36189
식	-8.36192
▁정도	-8.3661
이라고	-8.36639
▁괜찮은	-8.36673
ᄏᄏᄏᄏ	-8.36747
▁영화로	-8.37363
러	-8.37503
이고	-8.37503
무	-8.37667
▁기억에	-8.37687
어요	-8.37853
▁아무리	-8.37887
님	-8.38233
으면	-8.38292
호	-8.38539
▁못한	-8.38586
▁보	-8.38612
▁연기는	-8.38841
위	-8.38894
▁우리나라	-8.39392
▁졸작	-8.39583
▁그렇게	-8.40125
들을	-8.40381
▁사람들	-8.40386
노	-8.40426
▁지루하다	-8.40668
심	-8.40811
인듯	-8.41117
▁매우	-8.41393
▁나온	-8.41591
~!	-8.41931
▁만들어	-8.41969
▁오늘	-8.42354
연	-8.4277
▁자	-8.42801
▁애니메이션	-8.42973
▁제발	-8.42994
▁비	-8.43117
▁시리즈	-8.43264
▁음악	-8.43316
▁좋아요	-8.43471
바	-8.43671
타	-8.43689
▁6	-8.43694
▁있고	-8.43745
▁유	-8.43749
▁된	-8.43987
▁모르겠다	-8.44058
▁공포영화	-8.44525
모	-8.44606
▁같이	-8.44803
날	-8.45
▁것이	-8.45009
▁이해	-8.45016
▁알바	-8.45109
▁""""	-8.45523
디	-8.45678
▁봤어요	-8.45948
스토리	-8.46232
하네	-8.46431
루	-8.46454
▁하나도	-8.46523
▁극장에서	-8.46584
▁너무나	-8.46997
/	-8.47124
▁위해	-8.47137
▁미	-8.47232
▁마음이	-8.47233
▁않는다	-8.47341
▁어	-8.47373
하네요	-8.47605
▁위한	-8.47653
▁결국	-8.48462
없다	-8.48508
▁걸	-8.48835
운	-8.48875
번	-8.49206
해도	-8.49251
▁몰입도	-8.4927
보는	-8.49282
감	-8.49332
▁기분	-8.49497
▁정	-8.49516
▁좋아	-8.49683
간	-8.50288
▁한다	-8.50348
▁개봉	-8.50443
;;;	-8.51386
그리고	-8.51802
▁시작	-8.51868
▁수작	-8.51985
▁시	-8.52177
▁연기력	-8.52184
▁ᄒ	-8.52506
재	-8.52686
▁뭔	-8.52722
▁원작	-8.52754
▁막	-8.52799
적으로	-8.5334
저	-8.53814
▁영화네요	-8.53885
▁재밌음	-8.53939
▁신	-8.54117
▁강추	-8.54523
▁내용은	-8.54528
밖에	-8.5461
▁캐릭터	-8.54734
▁가슴	-8.5493
4	-8.55054
ᅮ	-8.55147
방	-8.55516
배우	-8.55714
린	-8.55818
▁마	-8.5595
▁속	-8.55999
발	-8.56091
▁존나	-8.56122
▁갈수록	-8.56362
▁눈물	-8.56394
▁가슴이	-8.56588
▁준	-8.56608
최고	-8.56766
▁누가	-8.56827
었다	-8.56852
▁될	-8.5688
▁그나마	-8.56901
▁지루함	-8.56965
평점	-8.5701
후	-8.57053
▁기	-8.57145
든	-8.57172
▁보지	-8.57206
▁눈물이	-8.57253
▁대체	-8.57546
박	-8.57637
▁긴장감	-8.57706
▁대사	-8.57746
▁꽤	-8.5796
니까	-8.58041
작	-8.5808
▁보게	-8.5812
▁기억이	-8.58374
▁결말이	-8.58422
이런	-8.58822
▁소재	-8.58939
다니	-8.58992
▁기억	-8.58993
▁느낌이	-8.59315
▁훨씬	-8.59427
▁재미없음	-8.59447
▁시나리오	-8.59471
▁ᅮᅮ	-8.59667
▁조	-8.59685
준	-8.59891
판	-8.59979
점을	-8.60086
지는	-8.60222
▁영	-8.60327
▁알고	-8.60404
는게	-8.60487
했는데	-8.6077
▁미국	-8.61282
▁그래서	-8.61403
▁어설픈	-8.61475
▁재밌고	-8.61487
▁밖에	-8.6149
▁연기를	-8.617
▁않다	-8.6171
▁공감	-8.62105
▁쓰레기영화	-8.62124
회	-8.62381
만큼	-8.62843
참	-8.62987
생각	-8.6299
▁억지	-8.63175
파	-8.63316
▁보여주는	-8.63426
하며	-8.63436
지도	-8.63545
따	-8.6362
래	-8.6387
민	-8.64014
▁CG	-8.64159
▁게	-8.6475
▁남	-8.64769
되	-8.64775
완전	-8.64794
▁다들	-8.64802
크	-8.64965
▁몇	-8.65207
▁없었다	-8.65455
애	-8.65556
반	-8.65592
건지	-8.65668
는거	-8.65687
▁아쉽다	-8.65748
▁시즌	-8.65793
하면서	-8.65793
▁주고	-8.6611
+	-8.66432
▁영상	-8.665
▁간만에	-8.66593
▁영화관에서	-8.6683
▁사람들이	-8.67245
▁것도	-8.67651
감독	-8.67684
피	-8.67858
이야	-8.67935
르	-8.67946
차	-8.68045
▁잔잔한	-8.68143
▁영화중	-8.68362
▁설정	-8.68372
▁것을	-8.68524
넘	-8.68604
▁노잼	-8.68841
못	-8.68987
했음	-8.69151
▁그만	-8.69457
이지만	-8.69492
5	-8.69503
하기	-8.69719
▁노	-8.69996
배	-8.70054
▁30	-8.7013
것도	-8.70145
▁아님	-8.7044
▁당시	-8.7047
▁바로	-8.70494
▁영화였다	-8.70616
▁음	-8.7063
▁걸작	-8.70707
▁한국영화	-8.70739
▁같아요	-8.70794
▁더빙	-8.70849
▁생각을	-8.70924
봄	-8.71022
▁감동적인	-8.71045
으	-8.71059
▁만들	-8.71061
▁감동도	-8.71412
▁대해	-8.71567
▁무	-8.71574
중에	-8.71812
는지	-8.71867
▁재미있는	-8.71893
▁노래	-8.71912
▁생각보다	-8.72006
레	-8.72137
▁진정한	-8.72235
▁현실	-8.72353
▁좋은데	-8.72361
▁없어	-8.72392
다가	-8.72494
▁상당히	-8.72852
티	-8.72957
▁준다	-8.73138
▁로맨스	-8.73271
정도	-8.73736
▁재미있다	-8.73814
▁그대로	-8.73859
▁원	-8.73886
▁-	-8.74004
더라	-8.74092
▁했는데	-8.74426
▁스토리는	-8.74475
겠다	-8.74539
▁애들	-8.74642
이건	-8.74643
▁소	-8.74663
▁배우들이	-8.74803
▁김	-8.75004
▁정도로	-8.75138
▁같은데	-8.75217
▁중간에	-8.75428
▁가족	-8.75637
▁감동을	-8.75662
워	-8.75922
사람	-8.76241
였다	-8.76279
점대	-8.76301
▁점수	-8.76342
▁피	-8.76343
져	-8.76379
키	-8.76403
▁눈	-8.7644
문	-8.76486
등	-8.76533
▁감동이	-8.7654
작품	-8.7669
▁애	-8.76763
▁재미는	-8.76822
▁만화	-8.77029
▁날	-8.77233
▁나와서	-8.77295
▁있을까	-8.77342
프	-8.77358
▁재미있어요	-8.77417
▁모	-8.77742
▁미친	-8.77878
이거	-8.77994
▁세	-8.78042
인줄	-8.78137
현	-8.78369
▁캐스팅	-8.78576
울	-8.78722
▁있지만	-8.7894
▁재밌네요	-8.79152
실	-8.79252
▁부	-8.79264
▁인간	-8.7944
▁단	-8.79484
s	-8.79529
속	-8.79843
▁뭐지	-8.80014
▁자기	-8.80061
려고	-8.80081
산	-8.80251
▁별점	-8.80271
초	-8.80311
터	-8.80422
▁봤지만	-8.80449
▁구	-8.80469
▁발연기	-8.80543
▁보니	-8.8057
▁거의	-8.80809
형	-8.80851
▁끝	-8.80868
년이	-8.80914
뿐	-8.80953
코	-8.81063
▁약간	-8.8122
▁장면이	-8.81587
▁강	-8.81757
▁영화도	-8.82105
던데	-8.82597
해요	-8.82654
사랑	-8.82668
▁굉장히	-8.82762
▁마음에	-8.82862
▁나의	-8.83008
▁ᅳ	-8.83215
▁볼만한	-8.83218
겨	-8.83291
즈	-8.83344
▁갑자기	-8.83348
▁영화임	-8.83391
▁되	-8.83624
▁뭐야	-8.83771
▁제가	-8.84049
▁어디서	-8.84247
▁봐서	-8.84317
거야	-8.84379
▁사실	-8.84382
▁훌륭한	-8.84681
▁있어서	-8.84891
하는데	-8.85109
공	-8.85133
▁저런	-8.85257
▁뿐	-8.85259
▁새로운	-8.85424
▁뭐냐	-8.85532
▁원작을	-8.85612
"""	-8.85646
▁이영화를	-8.85719
▁표현	-8.85768
느낌	-8.85833
▁장	-8.8598
▁전부	-8.8619
▁문제	-8.86226
편은	-8.86244
생	-8.8633
▁다큐	-8.86551
▁욕	-8.86687
구만	-8.86819
▁평점을	-8.86958
▁이딴	-8.86973
카	-8.87208
내용	-8.87244
▁불	-8.8743
▁하지	-8.87549
▁바	-8.87586
▁아직	-8.87773
▁박	-8.87787
주는	-8.87884
▁영화인데	-8.88012
이네	-8.88134
꺼	-8.88366
▁대단한	-8.88854
~!!	-8.88924
▁90	-8.89132
▁판타지	-8.89272
▁못하는	-8.89368
▁주인공이	-8.89423
▁항상	-8.89589
▁코믹	-8.89711
▁일단	-8.89745
거나	-8.89771
태	-8.89836
▁적	-8.8985
▁분위기	-8.89862
▁봐라	-8.89865
땜에	-8.89921
▁우	-8.89944
▁자체가	-8.90092
▁그런지	-8.90327
▁재미없는	-8.90477
▁매력	-8.90554
편이	-8.90617
론	-8.90635
▁구성	-8.90939
▁여주인공	-8.90979
있다	-8.91034
▁그러나	-8.91118
영화는	-8.91165
▁하다	-8.9136
버	-8.91483
▁저는	-8.91497
>	-8.91516
근데	-8.91585
▁마음	-8.9162
▁혼자	-8.91673
경	-8.9169
▁차	-8.91995
국	-8.92068
라면	-8.92089
군요	-8.92172
희	-8.92198
▁말도	-8.92331
▁네이버	-8.92375
▁있는데	-8.92445
수준	-8.92586
토	-8.9261
▁아무	-8.9262
▁가지고	-8.9277
불	-8.92848
▁주연	-8.92857
▁아까움	-8.9292
▁발	-8.93005
▁봤음	-8.93015
▁없어서	-8.93124
▁생각하게	-8.93258
▁해서	-8.93282
▁작가	-8.93303
▁충분히	-8.93385
망	-8.93482
▁중국	-8.93636
▁비해	-8.93705
쓰레기	-8.93713
▁TV	-8.93742
▁했다	-8.93914
▁사람은	-8.94185
봤다	-8.94375
▁초	-8.94584
대로	-8.94736
금	-8.94794
▁후회	-8.94842
▁봄	-8.94876
재미	-8.94917
병	-8.94963
봐	-8.95431
이네요	-8.95431
▁점점	-8.95492
o	-8.95687
관	-8.95758
▁맘에	-8.95803
감동	-8.95977
▁제목	-8.95986
▁모습	-8.9639
▁삼류	-8.96472
창	-8.96518
▁들	-8.9668
알	-8.9676
▁뭐가	-8.96912
6	-8.96995
어서	-8.97066
또	-8.97222
이라도	-8.97463
입	-8.97556
▁좋네요	-8.97581
▁친구	-8.97609
아니	-8.97609
▁tv	-8.97626
▁평	-8.9768
영화가	-8.97938
OO	-8.98051
림	-8.98051
▁살	-8.98343
▁전쟁	-8.98444
▁필요	-8.98446
같이	-8.98465
▁더욱	-8.98532
▁것은	-8.98646
▁빨리	-8.98847
해야	-8.98972
라서	-8.99051
▁어느	-8.99176
에도	-8.99245
▁good	-8.99296
▁재밌는데	-8.99332
극	-8.99592
▁배	-8.99599
양	-8.99708
▁꿀잼	-8.99777
종	-8.99828
▁그닥	-8.99829
▁처음부터	-8.99831
장면	-9.00003
뭐	-9.00008
김	-9.00107
▁찾아	-9.00125
▁얘기	-9.00164
D	-9.00181
▁개연성	-9.00408
탄	-9.00438
▁좋겠다	-9.00477
▁봐야	-9.00509
▁유치한	-9.00824
이야기	-9.0094
▁엔딩	-9.01025
▁합니다	-9.01134
▁한마디로	-9.01182
▁무조건	-9.01264
▁도저히	-9.01286
ᄋ	-9.0132
강	-9.0154
8	-9.01572
▁엄청난	-9.01631
▁등	-9.01714
담	-9.01803
▁각본	-9.01832
▁재밌었다	-9.01951
▁전개가	-9.02107
▁어릴때	-9.02134
▁(	-9.02146
▁이영화는	-9.02294
▁여기	-9.02547
거지	-9.02557
이지	-9.02557
▁너무너무	-9.02596
▁다시봐도	-9.0272
▁슬픈	-9.02808
▁아쉬운	-9.02817
▁보는데	-9.02843
▁가는	-9.02848
▁방송	-9.02882
▁않	-9.02961
▁있어	-9.02995
▁여배우	-9.03072
▁예전에	-9.03249
너	-9.03277
▁너	-9.03307
▁100	-9.03509
▁따뜻한	-9.03613
할때	-9.03688
없고	-9.03808
쳐	-9.03921
것이	-9.04003
▁머	-9.04178
없음	-9.04352
▁이런영화	-9.04426
▁모르고	-9.04552
영화를	-9.04598
▁없네	-9.04866
▁감독은	-9.05002
내가	-9.05096
▁원래	-9.05153
▁돈주고	-9.05315
기는	-9.05385
▁진	-9.05387
▁이름	-9.0542
▁봤네요	-9.05477
7	-9.05486
▁있을	-9.05541
▁그때	-9.05575
이게	-9.05679
갈	-9.05735
▁사랑을	-9.05914
역	-9.06044
▁잘못	-9.06081
▁따라	-9.06174
▁사람들은	-9.06373
보단	-9.06419
▁평점은	-9.06454
했지만	-9.06646
▁안된다	-9.06856
이었다	-9.06943
▁ᄍᄍ	-9.07241
년도	-9.07277
▁상	-9.07279
▁있음	-9.07367
▁자체	-9.0743
▁재밌	-9.07561
▁존	-9.07568
악	-9.07699
봐도	-9.07922
▁울	-9.08055
▁재미없어	-9.08067
▁그게	-9.08227
▁옛날	-9.08367
▁완벽한	-9.08391
다고	-9.08414
▁만	-9.08495
▁이것도	-9.08584
▁모르는	-9.08652
▁얼굴	-9.08664
예	-9.08779
기도	-9.08782
▁재	-9.08861
▁전형적인	-9.08885
▁야	-9.09012
▁허	-9.09042
▁자꾸	-9.09056
녀	-9.09417
기만	-9.09498
▁잼	-9.09541
▁예	-9.0958
조차	-9.09593
▁높은	-9.09629
년전	-9.09728
스러운	-9.09806
▁짜증	-9.09932
그래도	-9.10001
▁아이들	-9.10123
▁감독님	-9.10496
▁번	-9.10566
▁스	-9.10588
▁된다	-9.10626
▁헐	-9.10702
▁오래	-9.10706
▁없네요	-9.10762
▁오히려	-9.1079
▁뭔지	-9.10939
▁있었다	-9.10966
▁느낄	-9.1102
있고	-9.11035
▁수가	-9.11083
에선	-9.11166
▁알았다	-9.11322
▁성룡	-9.11363
이라면	-9.11425
체	-9.11439
돈	-9.11444
보니	-9.11639
구요	-9.11665
움	-9.1172
▁비디오	-9.11778
▁성	-9.11796
▁불륜	-9.11804
▁선	-9.11848
▁심	-9.11882
▁억지로	-9.11965
듯한	-9.11975
▁없	-9.12148
됨	-9.12249
▁좋은영화	-9.12274
▁좋음	-9.12297
▁언제	-9.12298
▁낫다	-9.12311
여자	-9.12331
▁포스터	-9.12429
▁장난	-9.12522
▁그리	-9.12557
씬	-9.12578
▁물	-9.12662
온	-9.12814
▁SF	-9.12887
라니	-9.1291
쓰	-9.1293
▁평점에	-9.13063
▁80	-9.13099
▁우연히	-9.13219
▁이야기를	-9.133
▁엄마	-9.13364
▁인간의	-9.13397
것같다	-9.13605
액션	-9.13714
▁총	-9.13779
건가	-9.13814
집	-9.13883
▁좋았어요	-9.13949
▁만점	-9.14001
▁극장판	-9.14022
▁파	-9.14052
다는	-9.14076
통	-9.14312
▁멜로	-9.14316
년에	-9.14382
머	-9.14487
▁돈이	-9.1457
9	-9.14695
▁지루	-9.14791
▁믿고	-9.14792
▁시절	-9.14858
▁해도	-9.14901
▁배우가	-9.1508
케	-9.15174
▁듯한	-9.15178
▁아닌가	-9.15296
▁아무것도	-9.15352
▁비슷한	-9.1539
d	-9.15634
▁액션도	-9.15659
좋은	-9.1588
별로	-9.15933
▁죽	-9.15954
많이	-9.15961
▁부족한	-9.16212
▁더럽게	-9.16506
▁이리	-9.16572
▁말고	-9.16627
매	-9.16802
볼	-9.16914
▁똥	-9.16948
▁처음으로	-9.17059
▁것이다	-9.17067
▁줄거리	-9.17155
0	-9.17171
▁배경	-9.17187
▁특유의	-9.17638
▁연출이	-9.17711
▁참고	-9.17716
▁흠	-9.17725
▁초반	-9.17752
▁ost	-9.17766
▁재미있고	-9.17774
▁앞으로	-9.17838
▁물론	-9.1784
▁동	-9.17926
잼	-9.18024
▁여주	-9.18067
▁지금까지	-9.181
▁화이팅	-9.18114
된다	-9.1825
▁이상한	-9.18405
▁코메디	-9.18442
▁만들지	-9.18459
▁알았는데	-9.18495
▁망작	-9.18576
▁이미	-9.18612
▁소리	-9.18614
▁아이들이	-9.18709
▁모습이	-9.19044
▁상황	-9.1916
될	-9.1918
잖아	-9.19265
▁입	-9.19311
▁대단하다	-9.19391
▁지금도	-9.19409
▁졸라	-9.19577
계	-9.20064
나요	-9.20111
거다	-9.20149
▁느끼게	-9.20159
▁길	-9.20196
▁분	-9.20211
▁왕	-9.20212
▁이런걸	-9.20443
♡	-9.20446
▁출연	-9.20558
▁예술	-9.20603
▁힘든	-9.20654
▁유치하고	-9.2068
▁매	-9.20781
▁재밌어	-9.20985
릴	-9.21007
기에	-9.21049
▁어렸을때	-9.211
▁굳	-9.21178
▁나와	-9.21349
▁하면	-9.21477
▁재미없고	-9.21625
놓고	-9.21633
~~~~	-9.2166
▁반전이	-9.21664
_	-9.21694
▁....	-9.21869
▁연	-9.21965
▁행복	-9.22085
▁괜히	-9.22187
▁제작	-9.22187
▁낮은	-9.22206
▁장면은	-9.22325
▁세계	-9.2235
글	-9.22461
▁지난	-9.22492
▁명작이다	-9.22516
나오는	-9.22556
▁않음	-9.22636
▁기대하고	-9.22669
▁실제	-9.22732
겠지	-9.22808
▁쳐	-9.22888
▁액션영화	-9.22899
▁저도	-9.22907
▁소설	-9.23127
되고	-9.23283
해라	-9.23299
달	-9.23395
더니	-9.2351
▁왜이리	-9.23554
▁쓰	-9.24087
▁ᄒᄒᄒ	-9.24194
있	-9.24197
었는데	-9.24206
▁뒤	-9.24217
▁입니다	-9.2423
:	-9.24273
▁어린	-9.24374
▁아니지만	-9.24387
들도	-9.2442
니다	-9.24424
▁나온다	-9.24579
슴	-9.24579
▁꿈	-9.246
▁프랑스	-9.24642
▁그렇고	-9.24696
연출	-9.24749
▁최악이다	-9.24749
이라니	-9.24811
보다는	-9.24826
에는	-9.24879
마지막	-9.24955
▁지루해	-9.24987
들에게	-9.25029
▁유치	-9.25084
▁선택	-9.25106
▁영화라	-9.25122
▁또한	-9.25142
▁시간낭비	-9.25179
▁장르	-9.25276
▁카	-9.25403
점준다	-9.25433
소리	-9.25442
▁진부한	-9.25461
▁허접	-9.25475
이냐	-9.25515
▁간	-9.25556
▁중에	-9.2557
보기	-9.25702
었던	-9.25703
▁영화보다	-9.25705
▁올	-9.25851
점짜리	-9.25984
▁첫	-9.26001
▁백	-9.26046
길래	-9.26089
같다	-9.26139
▁좋았습니다	-9.26367
대박	-9.26427
▁화려한	-9.26515
▁재밌었어요	-9.26526
테	-9.26555
별	-9.26632
하냐	-9.26823
다시	-9.26904
▁영화에서	-9.26989
▁이런거	-9.26994
▁관객	-9.27021
▁스토리에	-9.27029
▁순간	-9.27105
▁좋았고	-9.27127
을까	-9.27255
▁전체적으로	-9.27352
나는	-9.27371
▁이정도	-9.27484
만으로도	-9.27674
▁개그	-9.277
▁결혼	-9.27741
▁눈이	-9.2789
▁나올	-9.27951
▁여	-9.28042
▁마음을	-9.28043
▁나만	-9.28129
굿	-9.28373
▁열	-9.28398
을때	-9.28473
포	-9.28554
▁좋	-9.28586
했어요	-9.28601
▁않았다	-9.28664
▁잘봤습니다	-9.28738
봐라	-9.28766
▁보여준	-9.28778
▁그런데	-9.2887
▁병맛	-9.28901
▁평가	-9.28919
▁알게	-9.28984
▁목소리	-9.28989
▁허접한	-9.29037
▁같습니다	-9.29047
▁영화였습니다	-9.29229
▁먼저	-9.29233
했고	-9.29255
▁마치	-9.29311
▁쓴	-9.29412
▁손	-9.29473
▁삶을	-9.29491
뻔	-9.29555
▁무엇보다	-9.29646
▁보고나서	-9.29656
▁하는데	-9.29669
눈	-9.29938
▁치	-9.29948
▁못하고	-9.30097
▁너무나도	-9.30106
영화다	-9.3032
▁있	-9.3033
▁귀신	-9.30349
▁현재	-9.30371
▁않을	-9.3048
역시	-9.30489
능	-9.30535
▁저질	-9.30556
강추	-9.30617
추	-9.30739
남자	-9.30861
▁귀여운	-9.31005
▁소재는	-9.31037
▁인	-9.31065
▁힘	-9.31232
▁시청률	-9.31397
▁드라마를	-9.31403
................	-9.31468
▁하게	-9.31499
치고	-9.31623
이면	-9.31647
▁지금봐도	-9.3165
학	-9.31701
력	-9.31738
▁다소	-9.31985
특히	-9.32033
▁스릴	-9.32045
▁어이없는	-9.32057
▁흥행	-9.32116
▁자신의	-9.3223
▁과거	-9.32277
잡	-9.32311
보다가	-9.3234
짓	-9.32413
▁이젠	-9.32459
▁확실히	-9.32537
▁아닐까	-9.32573
▁편집	-9.32595
▁글	-9.32642
▁예상	-9.32704
▁영상미	-9.32708
▁추억	-9.32792
▁액션이	-9.32794
▁볼수	-9.3304
만한	-9.33108
는건	-9.3311
새	-9.33144
▁실화	-9.33145
▁딸	-9.3319
▁대한민국	-9.33202
에겐	-9.33372
▁보이는	-9.33413
▁왠지	-9.33432
▁카메라	-9.33445
▁있었던	-9.33471
표	-9.33529
▁연출력	-9.33581
▁어색한	-9.33667
▁있다는	-9.33712
▁코	-9.33795
▁편	-9.33838
▁머리	-9.33879
웃음	-9.3396
▁사랑이	-9.33975
▁매력적인	-9.34011
▁이영화가	-9.34013
▁이야기가	-9.34068
색	-9.34124
▁본다	-9.34129
않	-9.34158
▁부족	-9.34267
▁좋았는데	-9.34349
▁존재	-9.34526
▁같네요	-9.34555
▁그런가	-9.3459
되어	-9.34715
▁첨	-9.34734
ᅲᅲᅲ	-9.34814
▁모습을	-9.3482
▁아이	-9.34834
▁함	-9.34844
기를	-9.34875
▁요	-9.3488
천	-9.34953
▁이런게	-9.34967
▁볼만	-9.34986
▁부분이	-9.34988
▁좋았음	-9.35038
▁깊은	-9.35094
▁겁나	-9.35246
명작	-9.35407
▁왜이렇게	-9.35455
▁세상에	-9.35538
설	-9.3554
▁맛	-9.35578
봐서	-9.35707
친	-9.3583
▁킬링타임용	-9.3585
▁별루	-9.3587
▁다음	-9.3598
▁유쾌한	-9.36041
▁여자가	-9.36065
▁감사합니다	-9.36092
무슨	-9.36102
▁평론가	-9.36208
▁초딩	-9.36236
▁망	-9.36246
▁갈	-9.36259
▁아버지	-9.36259
▁생각한다	-9.36375
세요	-9.3642
▁나라	-9.36451
▁이후	-9.36457
채	-9.3652
투	-9.36571
격	-9.36697
순	-9.3672
▁매력이	-9.36729
▁나이	-9.36744
▁영화중에	-9.36773
▁순	-9.36803
▁느껴지는	-9.36808
간다	-9.36843
석	-9.36921
마다	-9.37099
▁만족	-9.37205
맨	-9.37239
▁했지만	-9.37241
▁떨어지는	-9.37243
▁순수한	-9.37246
▁온	-9.37359
▁사회	-9.37384
짐	-9.37545
▁그래픽	-9.37609
▁별로다	-9.37668
▁아놔	-9.37708
스트	-9.37958
▁ᄉᄇ	-9.37965
▁나를	-9.38017
▁리메이크	-9.38041
▁서로	-9.38042
▁대충	-9.38065
근	-9.38104
▁내용을	-9.38129
왕	-9.38167
▁공	-9.38218
▁내인생	-9.38252
▁복수	-9.38296
▁독립영화	-9.3834
▁스토리와	-9.38589
▁든다	-9.386
절	-9.3863
광	-9.38635
▁전기세	-9.38648
-_-	-9.38668
▁전에	-9.38704
▁아니면	-9.38791
~^^	-9.38823
▁역대	-9.38858
▁OST	-9.38951
▁약	-9.38989
▁눈을	-9.39017
▁아름답다	-9.39095
▁역시나	-9.39106
▁드라마가	-9.39129
거냐	-9.39159
▁드는	-9.39169
▁비추	-9.39255
▁맞는	-9.39395
▁처음이다	-9.39398
▁나오고	-9.3942
재밌	-9.39493
▁두번	-9.3957
▁마라	-9.39629
사람들	-9.39645
▁여전히	-9.39673
▁정신	-9.39775
▁나쁜	-9.40024
▁독특한	-9.40025
▁라는	-9.40102
▁성우	-9.40104
좋아	-9.40155
▁연기력이	-9.40238
▁해준	-9.40256
▁어디	-9.403
▁ᄏᄏᄏᄏᄏ	-9.40381
▁감	-9.4052
▁15	-9.4064
▁댓글	-9.40698
▁보지마세요	-9.40701
▁아닌데	-9.40728
좋다	-9.4081
▁새	-9.4084
삼	-9.40884
^	-9.40889
▁화	-9.40974
▁사람을	-9.41
이렇게	-9.41056
▁없을	-9.41098
보는데	-9.41124
▁-_-	-9.41176
더군요	-9.41177
▁무서운	-9.41216
▁양	-9.41228
▁질질	-9.41272
▁이번	-9.41273
했습니다	-9.41297
▁책	-9.41328
▁소재를	-9.41329
법	-9.4138
▁작품이	-9.41385
▁M	-9.41479
▁평범한	-9.41638
▁마무리	-9.41678
▁낭비	-9.41729
▁봤었는데	-9.418
▁좀비	-9.41834
▁신선한	-9.41865
ᄉ	-9.4197
▁있다면	-9.41993
▁늘	-9.41996
▁재미있음	-9.42067
▁볼때마다	-9.42093
하는거	-9.42133
교	-9.42196
▁감정	-9.42246
▁사는	-9.42424
(?)	-9.42487
▁난다	-9.42494
▁최	-9.42552
▁사극	-9.42719
▁<	-9.42723
▁슬프다	-9.42734
▁이유	-9.4281
허	-9.42868
▁변	-9.42931
▁저렇게	-9.42951
하여	-9.43041
월	-9.43043
▁아름답고	-9.43133
t	-9.43167
▁지루하지	-9.43241
ᄏᄏᄏᄏᄏᄏᄏᄏᄏᄏᄏᄏᄏᄏᄏᄏ	-9.43375
▁들어	-9.43402
보면서	-9.4343
▁화면	-9.43492
시리즈	-9.43492
▁평생	-9.43534
열	-9.43562
▁귀엽고	-9.43564
▁방	-9.43654
▁연기에	-9.43654
▁부분	-9.43664
끝	-9.43721
▁이유가	-9.43768
▁안되고	-9.43893
▁액션은	-9.43902
할수	-9.44088
막	-9.44097
▁그들의	-9.44165
▁끝나고	-9.4418
▁그의	-9.44303
업	-9.44401
기대	-9.44406
▁했던	-9.44445
였음	-9.44481
시간이	-9.44595
▁대작	-9.44601
▁인정	-9.44652
▁굳이	-9.44682
▁애들이	-9.44687
말이	-9.44691
▁아빠	-9.44699
욕	-9.44749
▁C	-9.44843
풍	-9.44859
▁일본영화	-9.44874
▁깊이	-9.44942
▁보는게	-9.44987
▁감동적이고	-9.45006
▁남주	-9.45122
리는	-9.45126
으니	-9.45221
행	-9.4525
▁충격	-9.45266
▁살짝	-9.4527
▁재밌었는데	-9.45305
난다	-9.45339
걸까	-9.45354
평	-9.45368
▁안하고	-9.45428
▁나서	-9.4545
▁사랑하는	-9.45574
이제	-9.45589
겠지만	-9.45643
▁통해	-9.45679
▁데	-9.45687
▁젤	-9.45699
▁잠	-9.45714
인거	-9.4576
▁기대를	-9.45888
▁촬영	-9.46006
▁음악이	-9.4601
했으면	-9.46013
한거	-9.46028
하니	-9.46197
e	-9.46237
건데	-9.46238
증	-9.46285
▁남는다	-9.46345
▁보기엔	-9.46373
▁재미없	-9.46418
▁프로	-9.46425
▁까	-9.46519
▁영화이다	-9.46689
▁과연	-9.46719
▁안됨	-9.4672
속에	-9.46805
방송	-9.46814
▁스토리를	-9.46964
▁로맨틱	-9.46979
▁되어	-9.47073
▁게임	-9.47164
▁여성	-9.47311
버린	-9.47319
백	-9.47331
▁웃음	-9.47351
가서	-9.47471
느	-9.47585
▁연기와	-9.47596
=	-9.47624
▁짜증나는	-9.47683
▁졸	-9.47737
▁상영	-9.4777
거임	-9.47898
▁수준이	-9.47974
▁그럭저럭	-9.48092
▁공감이	-9.48114
▁가진	-9.48168
척	-9.48229
▁기분이	-9.48242
▁해주는	-9.48262
▁형	-9.48354
▁b	-9.48369
처음	-9.48384
▁추천합니다	-9.48409
▁잘만든	-9.48416
▁cg	-9.48611
했	-9.48655
▁분명	-9.48713
▁만들어진	-9.48837
▁생각합니다	-9.48923
▁잼있게	-9.4903
▁영화지만	-9.49136
지금	-9.49188
▁나왔으면	-9.49225
@	-9.49348
▁아닌듯	-9.49379
▁프로그램	-9.49415
놈	-9.4943
▁아들	-9.49469
내요	-9.49515
▁열심히	-9.49584
▁처음엔	-9.49608
메	-9.4964
▁만들었다	-9.49654
수가	-9.49659
일까	-9.49691
▁몰입이	-9.49869
▁고민	-9.49962
▁되었다	-9.50029
도록	-9.50164
▁군대	-9.50211
▁있지	-9.50212
전개	-9.50285
▁보고싶다	-9.50295
▁감상	-9.50406
▁봤다가	-9.50416
▁범죄	-9.50421
▁같음	-9.50454
▁티비에서	-9.50484
▁재미없네	-9.50586
▁아까워	-9.50617
▁그래	-9.50633
▁보시길	-9.50638
▁재밌습니다	-9.50848
▁같아	-9.50858
▁봐	-9.50888
▁뮤지컬	-9.50933
▁더이상	-9.50933
환	-9.51054
▁많다	-9.51078
▁밑에	-9.51113
권	-9.51198
▁아저씨	-9.51219
▁완성도	-9.51331
▁의미	-9.51334
▁악	-9.51377
▁다만	-9.51434
▁둘	-9.51507
▁주인공의	-9.51523
▁등장	-9.51593
▁명	-9.51672
짜	-9.51714
▁진행	-9.5174
▁봤으면	-9.5175
▁높다	-9.51782
이며	-9.51991
▁영화보고	-9.51995
▁연애	-9.52068
▁진심으로	-9.521
▁팬	-9.52283
▁예쁜	-9.52321
▁인물	-9.52346
▁용	-9.52364
▁심리	-9.5242
배우들	-9.52422
재미없다	-9.52582
▁생각나는	-9.52593
없	-9.52729
억	-9.52848
▁사랑에	-9.5285
▁재미를	-9.52934
▁속편	-9.53075
▁휴	-9.5316
▁생	-9.53233
▁말로	-9.53287
ᄍᄍ	-9.53323
▁질	-9.53339
▁외	-9.53396
▁삶	-9.53425
▁드라마는	-9.5344
▁볼만함	-9.53453
▁크게	-9.53518
딸	-9.5352
▁타	-9.53536
▁한편	-9.53632
????	-9.53683
규	-9.53704
▁남을	-9.53721
▁이유는	-9.53851
빠	-9.53885
나라	-9.5389
하는게	-9.53949
▁몸	-9.54055
▁이정도면	-9.54186
▁되게	-9.54217
반전	-9.54232
어야	-9.54263
▁역사	-9.5428
점주는	-9.54316
브	-9.54342
급영화	-9.54396
ᄒᄒᄒ	-9.54429
▁노출	-9.54557
▁완벽	-9.54561
▁그다지	-9.54565
마저	-9.5459
였는데	-9.54605
▁아오	-9.54702
▁끝나	-9.54925
승	-9.55
▁몰입	-9.55022
사람이	-9.55039
▁행동	-9.5507
▁필요없다	-9.55081
▁추억의	-9.55147
▁감성	-9.5525
감독이	-9.55268
▁다큐멘터리	-9.5528
▁아는	-9.55369
▁19	-9.55525
▁쉽게	-9.55567
▁긴	-9.55625
쯤	-9.55638
▁유치함	-9.55666
없어	-9.55666
▁깨	-9.55677
▁싫다	-9.55697
▁토	-9.55796
▁필요없는	-9.55813
▁여러	-9.55892
▁없지만	-9.55921
▁훨	-9.55961
▁삶의	-9.55972
▁볼수록	-9.56023
b	-9.56028
▁감동과	-9.5607
▁설명	-9.5609
▁나중에	-9.56098
▁만큼	-9.56162
▁어제	-9.56178
커	-9.56254
▁좋았던	-9.56256
▁한계	-9.56261
꼭	-9.56301
▁중간중간	-9.56334
▁재미있	-9.56409
▁지루해서	-9.56414
처	-9.56455
▁디즈니	-9.56611
▁배우의	-9.56787
▁재미있네요	-9.56825
▁소재가	-9.56857
▁아쉬움	-9.56895
하면서도	-9.56972
▁가볍게	-9.57067
▁제목이	-9.57105
▁정치	-9.57114
▁호	-9.57154
성이	-9.5718
▁비주얼	-9.57254
복	-9.57315
▁좋습니다	-9.57429
▁일상	-9.57437
▁엉성한	-9.57628
▁소름	-9.57652
진다	-9.57679
▁보고싶은	-9.57761
▁나에게	-9.57958
았	-9.57974
▁실	-9.58109
▁있나	-9.58141
가지고	-9.58148
철	-9.58153
▁주인공들	-9.58192
▁봐야할	-9.58229
거같다	-9.58275
이에요	-9.58299
▁나오	-9.58358
▁가서	-9.58441
▁끝나는	-9.58558
▁못했다	-9.58573
애니	-9.58595
▁관계	-9.58749
▁소재로	-9.5879
▁언제나	-9.58791
▁이건뭐	-9.58905
죽	-9.58931
코미디	-9.59063
▁살인	-9.59077
▁12	-9.59143
▁글쎄	-9.59167
▁몰라도	-9.59235
▁영웅	-9.59253
드라	-9.59295
나서	-9.59422
이상	-9.59436
퍼	-9.59735
▁암	-9.59739
야지	-9.59791
▁비교	-9.59879
▁힘들	-9.59904
재밌다	-9.59918
▁분들	-9.59988
▁우리가	-9.59989
▁역	-9.59999
▁좋아서	-9.60113
락	-9.60155
▁메시지	-9.60249
n	-9.60309
일뿐	-9.60324
분들	-9.60355
하세요	-9.60436
▁그러	-9.60491
&	-9.60554
▁영화냐	-9.60579
▁ᄃᄃ	-9.60621
▁이연걸	-9.60673
▁있게	-9.60724
▁찍은	-9.60838
▁ᅮ	-9.60904
빈	-9.61046
▁사람의	-9.61107
▁포	-9.61142
▁슬프고	-9.6117
▁그럼	-9.61185
린다	-9.61199
아깝다	-9.61257
▁천	-9.61283
진심	-9.6138
▁싸구려	-9.6142
▁되지	-9.61516
▁범인	-9.6152
▁마세요	-9.61548
▁어릴적	-9.61675
▁건지	-9.61678
들어	-9.61711
준다	-9.61831
▁예고편	-9.61835
약	-9.61847
▁청춘	-9.61914
▁세상	-9.61955
분이	-9.61961
▁최근	-9.61961
네여	-9.61973
▁위	-9.61998
▁좋을	-9.62208
▁재밋	-9.62228
음악	-9.62259
▁경찰	-9.62318
▁확	-9.62333
것이다	-9.62362
언	-9.62367
▁않게	-9.62389
▁가끔	-9.62459
다면	-9.62473
▁만들고	-9.62479
최악	-9.62482
▁점수를	-9.62495
▁다시한번	-9.6264
▁이제야	-9.62642
▁올해	-9.62662
▁연출도	-9.62735
▁아깝지	-9.62774
▁불구하고	-9.62818
베	-9.62912
▁떠나	-9.62982
▁있습니다	-9.63112
▁;;	-9.63114
▁멋지다	-9.63117
것은	-9.63146
▁게이	-9.63225
▁정말로	-9.63341
▁하면서	-9.63391
츠	-9.63391
ᄆ	-9.63394
▁생애	-9.63432
▁사랑스러운	-9.63468
▁달	-9.63505
주고	-9.63553
▁뛰어난	-9.63598
▁표절	-9.63686
▁40	-9.63695
▁만든다	-9.63763
▁반전도	-9.63834
▁음악도	-9.63866
한번	-9.63977
▁하네요	-9.64012
▁캐릭터들	-9.64017
▁시선	-9.64059
▁진정	-9.64187
▁인생을	-9.64226
속에서	-9.64306
▁예전	-9.64307
▁재밌네	-9.64335
;;;;	-9.64343
정도로	-9.64373
▁웃기고	-9.64374
▁어려운	-9.64382
▁평이	-9.64458
▁사건	-9.6451
▁낮아서	-9.64635
▁말을	-9.64659
▁무지	-9.6477
실망	-9.64811
하던	-9.64825
▁쫌	-9.64951
▁관심	-9.64957
y	-9.64958
▁둘다	-9.65002
▁없나	-9.65092
까진	-9.65141
▁A	-9.6515
,,,,	-9.65213
▁홍콩	-9.65215
▁드럽게	-9.65233
▁스타일	-9.65255
▁감탄	-9.65267
올	-9.65322
▁산으로	-9.65339
▁딱히	-9.65367
해지는	-9.65537
▁유머	-9.65569
내용이	-9.65577
▁덜	-9.65583
나온	-9.65672
목	-9.65698
노잼	-9.65709
▁아름다움	-9.65795
▁죄다	-9.65801
▁표현한	-9.65845
▁살아	-9.65967
▁그걸	-9.66041
련	-9.66048
▁느와르	-9.66095
▁재밌었음	-9.66097
봐야	-9.66115
▁볼만하다	-9.66123
▁짜	-9.66128
▁봣는데	-9.66133
▁기본	-9.66158
▁몸매	-9.66189
▁단순	-9.6619
▁천재	-9.66279
▁흥미진진	-9.66415
걸로	-9.66517
▁바보	-9.66585
▁써	-9.66587
출	-9.66642
끼	-9.66693
▁성공	-9.66702
말고	-9.66785
▁사랑과	-9.66888
♥♥	-9.66913
▁어찌	-9.66914
▁시대	-9.66957
▁알아	-9.66969
▁재미있었다	-9.66991
드는	-9.67002
찬	-9.67008
▁꼴	-9.67046
▁잔인한	-9.67129
하긴	-9.67287
▁네	-9.67303
▁극장	-9.67343
치는	-9.67456
▁70	-9.67473
▁어머니	-9.67473
▁쵝오	-9.67492
씨가	-9.67536
▁쓰래기	-9.67586
▁인간이	-9.67634
▁같	-9.67669
웃	-9.67669
▁당	-9.67678
▁결말은	-9.67811
봣는데	-9.67817
▁어이가	-9.67892
▁시간을	-9.67913
좋	-9.67936
▁몰입해서	-9.67947
써	-9.67968
▁관람	-9.68007
▁힘들다	-9.68047
염	-9.68084
▁눈물을	-9.6817
에대한	-9.68184
얘기	-9.68206
▁좀더	-9.68235
▁리	-9.68287
▁악역	-9.68374
▁되고	-9.68441
▁짜증나	-9.6847
▁삼	-9.68508
▁있어요	-9.68564
주의	-9.68602
여서	-9.68612
▁산	-9.68708
때마다	-9.68825
▁결말도	-9.68882
▁집에서	-9.68882
▁보았다	-9.68932
▁리뷰	-9.68963
인가요	-9.69001
▁먹	-9.69092
▁주제	-9.69122
▁탄탄한	-9.69178
아이	-9.69221
a	-9.69367
였습니다	-9.69379
에서는	-9.69442
▁나옴	-9.6946
▁상상	-9.69464
▁병	-9.69509
ᄀ	-9.69636
▁옛날에	-9.69661
쿠	-9.69684
▁단순한	-9.69687
▁방금	-9.69713
▁괴물	-9.69763
▁처	-9.69782
침	-9.69824
년전에	-9.6985
슨	-9.69936
▁아직까지	-9.69947
슬	-9.69967
스럽다	-9.70021
▁몇번을	-9.70068
▁재미없어요	-9.70079
▁뻔하고	-9.70095
▁현실적인	-9.7011
으나	-9.70117
▁통	-9.70137
편보다	-9.70145
c	-9.70206
▁노력	-9.70206
지루	-9.70294
▁하는지	-9.70356
▁느끼는	-9.70358
▁보니까	-9.70362
▁답답	-9.70411
▁교훈	-9.70421
▁흔한	-9.70436
▁떠나서	-9.70488
께	-9.70519
▁초반에	-9.70538
던지	-9.70602
▁생각해	-9.70636
다른	-9.7072
▁느낌을	-9.70723
▁동화	-9.70749
▁제작비	-9.70759
ᄏᄏᄏᄏᄏ	-9.70783
먹	-9.70859
▁않아	-9.70972
▁짓	-9.70976
▁+	-9.70991
으며	-9.71138
▁헐리우드	-9.71148
▁남자가	-9.71151
▁시대를	-9.71163
▁시도	-9.71204
딱	-9.71221
들과	-9.7125
프로	-9.71361
▁독	-9.71365
▁무엇을	-9.71391
작가	-9.7145
있어	-9.71471
▁지금은	-9.71578
졌다	-9.71604
더만	-9.71643
▁무섭다	-9.71699
▁이후로	-9.71709
범	-9.71725
▁집중	-9.7179
먼	-9.71891
어도	-9.71892
거리	-9.71903
▁부터	-9.71947
쉬	-9.71963
려는	-9.72006
▁장면에서	-9.7201
▁웃긴	-9.7204
▁벌써	-9.72104
▁고전	-9.72203
▁많	-9.72243
▁생각없이	-9.72258
▁멍청한	-9.72264
▁단지	-9.72266
가족	-9.72279
▁같아서	-9.72325
▁작가가	-9.72326
▁모든게	-9.72333
."""	-9.72403
▁와우	-9.72417
▁재밋게	-9.72469
▁발로	-9.72517
▁즐겁게	-9.7254
▁작품성	-9.72552
▁대단	-9.72582
▁압권	-9.72627
▁레전드	-9.72665
▁베스트	-9.72666
▁잔잔하고	-9.72691
▁배우들도	-9.727
외	-9.72763
▁어쩔	-9.72808
▁돌려	-9.72827
▁희망	-9.72864
▁중간	-9.72932
▁누구나	-9.72952
▁않지만	-9.73023
▁그렇다	-9.73247
▁싶네요	-9.73339
▁위대한	-9.73392
▁관	-9.73441
름	-9.73575
점준	-9.73576
햇	-9.73621
▁광고	-9.73665
▁추	-9.73681
▁재밋다	-9.73807
▁줌	-9.73858
번째	-9.73878
적이고	-9.739
▁한데	-9.73941
▁눈에	-9.74006
는걸	-9.7401
▁짱짱	-9.74085
r	-9.74086
▁"""""""	-9.74166
▁안보고	-9.7418
▁귀	-9.74192
▁젊은	-9.7424
▁알바들	-9.74252
▁표정	-9.74277
▁유쾌하고	-9.7428
더라구요	-9.74304
였던	-9.74349
▁패	-9.74475
추천	-9.74512
맛	-9.74533
▁북한	-9.74534
▁말하는	-9.74534
▁보인다	-9.74728
▁죽음	-9.74739
을듯	-9.7478
▁우정	-9.74794
▁유명한	-9.74806
▁극	-9.74876
해주는	-9.74899
있음	-9.74904
▁ᄋᄋ	-9.74914
▁개판	-9.7492
▁이런영화가	-9.74926
▁여운	-9.74978
▁능력	-9.7502
k	-9.75047
스런	-9.75112
▁싫어	-9.75123
리가	-9.75142
습	-9.75175
었음	-9.75196
뜨	-9.7521
▁에휴	-9.75257
ᄃᄃ	-9.75259
▁안타깝다	-9.75276
▁미화	-9.75286
▁성장	-9.75287
▁저예산	-9.75321
▁시트콤	-9.75346
인것	-9.75422
차라리	-9.75453
각	-9.75482
▁맨날	-9.75531
▁단연	-9.75547
▁속에	-9.75548
▁이해할	-9.75564
▁영화에요	-9.75648
▁아이돌	-9.75727
▁허세	-9.75858
▁수도	-9.75886
아님	-9.75933
맞	-9.75954
▁웃겨	-9.75986
▁급	-9.76085
▁한참	-9.76115
도없고	-9.76236
내용도	-9.763
▁생각하고	-9.76357
▁높아	-9.76375
▁있네요	-9.76395
▁섹스	-9.76428
계속	-9.76471
▁있으면	-9.7661
좋고	-9.7665
▁현실성	-9.76674
▁빼고	-9.76697
▁멋있다	-9.7674
▁거지	-9.76786
들아	-9.76873
보세요	-9.77001
▁빠져	-9.77033
▁모르겠고	-9.77077
봤던	-9.7719
틀	-9.77266
엇	-9.7728
u	-9.77283
▁힘이	-9.77295
▁웃음이	-9.77307
▁연속	-9.77323
혀	-9.77398
▁티	-9.77425
덕	-9.77445
▁끝이	-9.77474
최고의	-9.77474
▁이거보고	-9.77612
▁대사가	-9.77663
▁폭력	-9.77681
▁으	-9.77709
셨	-9.77723
▁ᅲᅲᅲ	-9.77747
▁보고나면	-9.77833
손	-9.77859
▁후반부	-9.77917
기가	-9.77932
▁하나하나	-9.77941
잉	-9.77948
T	-9.77969
▁문	-9.7799
▁드	-9.77998
▁울었다	-9.78093
▁음악과	-9.78115
었	-9.78209
언니	-9.78211
하라	-9.78229
에요	-9.78273
함을	-9.78297
▁무척	-9.78301
▁메	-9.78312
▁당시에	-9.78315
▁무비	-9.78318
▁희생	-9.78363
▁그렇다고	-9.78422
▁여행	-9.78434
▁즐거운	-9.78509
▁이쁘고	-9.78514
오빠	-9.78516
▁느낄수	-9.786
▁헐리웃	-9.78608
▁최고입니다	-9.78647
▁보여주	-9.78655
▁제작진	-9.78664
일본	-9.78738
▁의도	-9.78792
한데	-9.78858
▁동물	-9.78919
▁꿈을	-9.78947
▁로봇	-9.79049
되지	-9.79057
▁없는데	-9.79072
▁성인	-9.79102
▁유치하다	-9.79127
▁가지	-9.7913
▁인기	-9.79143
지고	-9.79174
▁의외로	-9.79178
▁포장	-9.7922
평점이	-9.79243
▁따뜻해지는	-9.79246
▁필요한	-9.79256
▁영화였어요	-9.79265
▁개연성이	-9.79305
▁용서	-9.79353
만화	-9.79372
▁작품을	-9.79406
▁에피소드	-9.79432
▁미드	-9.79484
결	-9.79506
▁생각하는	-9.79572
▁잊지	-9.7961
찌	-9.7963
▁못할	-9.79685
▁죽는	-9.79694
▁에로	-9.79713
▁[	-9.79728
쇼	-9.79731
아닌	-9.79874
▁굿굿	-9.79888
다운	-9.79888
▁the	-9.79982
▁우와	-9.80032
▁제로	-9.80033
는것	-9.80097
▁접	-9.80132
▁해야	-9.80134
▁잡	-9.80246
▁일이	-9.80299
▁인생의	-9.80303
▁007	-9.80333
"""""""	-9.80346
▁50	-9.80347
▁덕분에	-9.80386
▁아쉽네요	-9.8043
▁재미있었어요	-9.80434
술	-9.80545
▁맞	-9.80563
벌	-9.80579
▁이쁘다	-9.8063
였	-9.80678
▁레	-9.80701
▁울고	-9.80753
돌	-9.80799
▁팔	-9.80859
많은	-9.8087
▁자연	-9.80886
▁왜케	-9.80933
▁쩐다	-9.81015
▁신선하고	-9.81088
▁좋게	-9.81109
▁돌	-9.81182
▁그녀	-9.8126
▁그린	-9.81295
▁짝퉁	-9.81308
▁벌	-9.81337
귀	-9.81344
▁티비	-9.81414
▁지루할	-9.81478
▁작품이다	-9.81489
니깐	-9.81554
▁인상	-9.81557
탈	-9.8156
▁봤더니	-9.81605
▁긴장감도	-9.81692
런	-9.81693
▁호러	-9.81698
▁스타	-9.81749
만으로	-9.81786
곤	-9.8182
▁잊혀지지	-9.81837
▁여기서	-9.81842
▁동안	-9.81963
품	-9.82079
▁모르겠지만	-9.82088
▁투	-9.82149
▁조합	-9.82171
▁진실	-9.82224
▁학교에서	-9.82237
▁지루했다	-9.8227
▁말하고	-9.82374
m	-9.8239
▁좋지만	-9.82414
▁나오면	-9.82447
독	-9.82494
▁경	-9.82509
▁흐름	-9.82598
▁답	-9.82607
인생	-9.82626
▁영국	-9.82638
▁안되	-9.8264
애들	-9.82686
▁작은	-9.82695
▁흥미로운	-9.82705
▁박수를	-9.82743
받	-9.8275
▁몰입감	-9.82752
▁더불어	-9.82755
▁펑펑	-9.82789
▁암튼	-9.82866
........	-9.82911
▁현대	-9.82959
▁감정을	-9.82984
곡	-9.82994
만든	-9.83015
▁없었던	-9.83031
▁어휴	-9.83053
쪽	-9.83136
스타	-9.8318
놈들	-9.8319
편을	-9.83248
하구	-9.83277
▁퀄리티	-9.83354
▁빼고는	-9.83501
윤	-9.83515
▁부족하다	-9.83558
▁좋았지만	-9.83565
동안	-9.8362
▁어색	-9.83622
▁카리스마	-9.83692
따라	-9.8373
하다가	-9.83742
▁더러운	-9.83752
▁순수	-9.83775
영상	-9.83813
▁홍보	-9.83834
▁종교	-9.83858
▁외모	-9.83929
▁13	-9.8399
▁이쁜	-9.83995
▁끝내	-9.84015
합	-9.84021
▁버	-9.84123
ᄂ	-9.84134
밀	-9.84176
▁않나	-9.84177
공포	-9.84188
x	-9.84216
암	-9.8423
연기가	-9.84287
▁까지	-9.84288
했네요	-9.84366
나오	-9.8445
▁직접	-9.84537
▁주성치	-9.84561
▁동생	-9.8457
▁지루하게	-9.84582
겠네	-9.84615
▁나가	-9.84648
한국	-9.84663
▁담	-9.84676
잇	-9.84705
▁맨	-9.84728
▁사랑은	-9.84763
▁아이가	-9.84795
칠	-9.84799
본다	-9.84843
▁나쁘지	-9.84857
시킨	-9.84879
시절	-9.84908
▁사랑의	-9.85011
책	-9.85028
갑	-9.85031
▁뻔	-9.85102
▁간다	-9.85105
록	-9.85135
▁먼	-9.85148
▁말할	-9.8525
재밌음	-9.85291
▁의심	-9.85331
직	-9.85359
▁못해	-9.85363
함이	-9.85447
▁시사회	-9.85479
▁좋았으나	-9.85494
대사	-9.85508
▁김기덕	-9.85584
▁보길	-9.85758
없네	-9.8577
▁역대급	-9.85773
기엔	-9.85805
▁집	-9.85806
필	-9.85822
▁:	-9.85826
이었음	-9.85857
▁뭐라	-9.85868
▁손발이	-9.85868
▁완전히	-9.85873
▁못한다	-9.85883
▁라고	-9.85894
잔	-9.85899
연기도	-9.85927
▁원작의	-9.85977
▁의미를	-9.85991
▁안돼	-9.86042
했는지	-9.86051
▁식	-9.8606
▁누구	-9.8611
플	-9.86132
▁찍	-9.86133
▁본다면	-9.86152
씩	-9.86168
▁유쾌	-9.86181
▁다룬	-9.862
제발	-9.86224
▁어린이	-9.86325
한다는	-9.86328
20	-9.86356
찍	-9.86362
이니	-9.86395
▁역할	-9.86397
훈	-9.86471
▁기대했는데	-9.86576
▁고양이	-9.86718
▁사이	-9.86719
▁좋겠어요	-9.86754
▁이유를	-9.86768
▁뇌	-9.86832
ᄃ	-9.86859
▁없지	-9.8696
스릴러	-9.86989
숙	-9.86999
▁실제로	-9.86999
▁딴	-9.87086
하는지	-9.87102
답	-9.87133
▁지나치게	-9.87135
▁18	-9.87169
▁그림	-9.87248
▁웃기지도	-9.87286
▁남자의	-9.87343
l	-9.87425
▁게다가	-9.87451
▁싸이코	-9.87459
지마라	-9.87485
요즘	-9.87495
▁연기력도	-9.87511
▁꼬	-9.87515
▁끝난	-9.87523
전에	-9.87554
▁삶에	-9.87566
▁쓰레기다	-9.87599
▁영화인듯	-9.87601
싸	-9.87616
변	-9.87657
▁넘치는	-9.8769
▁행복한	-9.87698
시키는	-9.87724
▁춤	-9.87798
청	-9.87806
▁상상력	-9.87913
▁조폭	-9.87941
패	-9.87944
이자	-9.87965
▁목	-9.88073
▁지구	-9.88116
▁잼있다	-9.88144
▁견자단	-9.88149
▁웃김	-9.88249
▁죽은	-9.88298
▁푹	-9.88329
▁엉망	-9.88371
씨의	-9.88401
▁느껴진다	-9.88415
하자	-9.88485
▁베	-9.88517
세기	-9.88517
▁낮	-9.88606
그런	-9.88612
익	-9.88663
▁문화	-9.88815
▁이어	-9.88832
▁평점보고	-9.88839
▁보며	-9.8886
▁뿐이다	-9.88996
첨	-9.89083
▁진부하고	-9.89122
C	-9.89123
f	-9.89161
▁국민	-9.89165
▁똑같은	-9.89196
▁갑	-9.89243
▁않을까	-9.89291
되서	-9.89326
싶다	-9.8938
량	-9.89439
▁답답한	-9.89497
것을	-9.89522
▁보여준다	-9.89545
▁스케일	-9.8957
▁모르게	-9.89634
▁재밌다고	-9.8966
▁많고	-9.89701
령	-9.89755
▁빈	-9.89784
낸	-9.89817
▁드립니다	-9.89824
총	-9.89864
수록	-9.89869
▁중요한	-9.89888
앙	-9.89891
▁학교	-9.89897
영화임	-9.89901
]	-9.89912
▁법	-9.8998
▁잊을	-9.89999
이라서	-9.90025
▁조연	-9.9003
그래서	-9.90041
▁싶은데	-9.90055
ᅡ	-9.90084
휴	-9.90121
무비	-9.90139
▁몇몇	-9.9014
엉	-9.9023
▁느끼	-9.90231
▁좋아해서	-9.90255
한영화	-9.90357
▁관한	-9.90381
▁하는거	-9.90401
만들어	-9.90443
버렸다	-9.90464
향	-9.90494
▁감동적	-9.90515
그러	-9.90569
자가	-9.90575
에서도	-9.90586
이걸	-9.90595
▁사랑이야기	-9.90596
▁스스로	-9.9063
▁가슴에	-9.90744
새끼	-9.90779
▁현	-9.90814
▁훈훈한	-9.90977
▁자유	-9.91016
▁전작	-9.91099
▁착한	-9.91102
있는데	-9.91128
주세요	-9.9115
▁잠깐	-9.9117
▁들었다	-9.91194
주인공	-9.91241
▁됨	-9.91246
같음	-9.91283
▁감동적이	-9.91288
▁메세지	-9.91299
존	-9.91346
인간	-9.91395
▁없다는	-9.91428
▁레알	-9.91431
▁자살	-9.91441
▁질리지	-9.91541
결말	-9.91556
▁무섭지도	-9.91653
▁대해서	-9.91757
▁긴장감이	-9.91834
▁감동적이다	-9.91863
빨	-9.92133
몰	-9.92151
캐릭터	-9.92175
와는	-9.92179
.......	-9.92205
▁싶어	-9.92288
▁숨	-9.92307
▁젠장	-9.92328
노래	-9.92369
땐	-9.92389
나와서	-9.9239
▁좋아하는데	-9.92414
있네	-9.92442
▁괜찮은데	-9.92472
▁남녀	-9.92472
▁달리	-9.92505
지않고	-9.92524
▁주기	-9.92576
▁리얼	-9.92613
▁많아	-9.92672
▁원작이	-9.92704
▁있던	-9.92724
▁여자들	-9.92739
모습	-9.92803
▁재미와	-9.92825
▁그녀의	-9.92835
▁청소년	-9.92868
였어요	-9.92881
▁개막장	-9.92942
▁속에서	-9.92942
▁밤	-9.92954
▁기자	-9.93024
▁추억이	-9.93032
▁나오지	-9.93051
팬	-9.93061
▁뒤로	-9.93098
엄마	-9.93154
▁포르노	-9.93191
▁왠만하면	-9.93219
아서	-9.93292
▁보려고	-9.93307
.........	-9.93366
▁한국영화는	-9.93397
▁그거	-9.93526
▁어렸을	-9.93538
▁기대안하고	-9.93633
▁끌어	-9.93691
▁바람	-9.93711
꼬	-9.9375
지않	-9.93762
들만	-9.93788
▁전개도	-9.93828
▁케이블	-9.93859
▁노답	-9.93876
▁하나의	-9.93967
▁소중한	-9.93977
▁재밌던데	-9.93985
▁웃기다	-9.94032
▁못함	-9.94034
오늘	-9.94059
▁이제서야	-9.94076
▁힐링	-9.94087
▁그렇지	-9.94155
돼	-9.94166
막장	-9.94197
얼	-9.94248
!!!!!	-9.94253
▁후반	-9.94255
▁막판에	-9.94325
▁밥	-9.94349
점줌	-9.94452
블	-9.94454
▁있는지	-9.94534
▁싸	-9.94541
▁잔	-9.94568
▁홍콩영화	-9.94614
▁반성	-9.94633
OOO	-9.94646
▁빠	-9.94653
▁화가	-9.94705
▁받을	-9.94731
영화중	-9.94732
▁태	-9.94747
현실을	-9.94779
▁감히	-9.94809
▁우리의	-9.94812
▁보여주고	-9.94818
보는내내	-9.94825
사람은	-9.94868
▁사기	-9.94879
우리	-9.949
▁DVD	-9.94997
하려는	-9.95002
▁한심한	-9.95063
하신	-9.95102
▁국내	-9.95109
▁점수가	-9.95112
▁앞으로도	-9.95177
만이	-9.952
▁뜻	-9.95216
▁악마	-9.95288
▁있었지만	-9.95361
▁개뿔	-9.95368
만의	-9.95384
▁디	-9.95421
▁금	-9.95457
▁하루	-9.95461
▁자막	-9.95501
▁짜증난다	-9.95561
▁니	-9.95574
▁작가님	-9.95606
▁대화	-9.95651
겠	-9.95695
편도	-9.95899
▁심하게	-9.95901
▁시각	-9.95919
와서	-9.96018
이였다	-9.96041
던가	-9.96086
▁말도안되는	-9.96115
▁없어요	-9.96177
▁욕망	-9.96185
▁살고	-9.96203
▁치고	-9.96315
장면이	-9.96362
▁할까	-9.96384
▁잼있어요	-9.96403
▁나왔다	-9.96416
▁할머니	-9.96416
▁모두가	-9.96422
▁보여	-9.96527
▁죽이는	-9.96586
▁윤	-9.96617
▁경험	-9.96648
▁의리	-9.96671
좋아요	-9.96679
▁전달	-9.96725
씬은	-9.96758
▁생각함	-9.96767
▁자신이	-9.96838
만드는	-9.96886
▁반개도	-9.96995
개봉	-9.97067
▁볼거리	-9.97071
▁어린시절	-9.97091
▁있구나	-9.97219
▁장르가	-9.97222
▁무술	-9.97237
▁보았습니다	-9.9727
▁발견	-9.97439
▁왜이래	-9.97523
▁묘사	-9.97595
▁인해	-9.97598
▁받아	-9.97599
▁설마	-9.97606
봐요	-9.9765
▁황당	-9.9768
▁할수	-9.97694
▁이하	-9.97829
영화라고	-9.9789
▁트	-9.97896
▁포기	-9.97962
징	-9.97978
였어	-9.98003
▁비판	-9.98043
▁아마	-9.98073
어떻게	-9.98085
점이다	-9.9809
▁신기	-9.98101
▁패러디	-9.98152
▁재미없게	-9.98184
▁보통	-9.98186
▁쩝	-9.98191
▁우리는	-9.98246
년도에	-9.98264
▁최초	-9.98323
▁본방사수	-9.98361
▁정의	-9.98482
▁영화보면서	-9.98508
부작	-9.98597
▁흑인	-9.98611
?!	-9.98612
▁세상을	-9.98681
임에도	-9.98686
봤음	-9.98686
나고	-9.98757
▁I	-9.98785
중의	-9.98791
▁소름이	-9.988
힐	-9.98808
시작	-9.98813
▁비디오로	-9.98825
▁형님	-9.98867
▁어른	-9.98902
ᅲᅲᅲᅲ	-9.98958
거같은데	-9.98968
▁알수	-9.99025
한듯	-9.99033
▁깨닫게	-9.99047
깨	-9.99066
▁영원히	-9.9908
료	-9.99091
▁않네요	-9.99092
빵	-9.99105
였고	-9.99138
▁11	-9.99175
▁거짓말	-9.99212
▁죽는줄	-9.99281
▁스트레스	-9.99299
▁설	-9.99327
▁영어	-9.9933
▁캐릭터가	-9.99369
▁진리	-9.99473
▁떨어진다	-9.99528
하지도	-9.99531
마지막에	-9.99533
▁흥미	-9.99549
한다고	-9.99571
적이	-9.99585
▁아픈	-9.99589
른	-9.99609
▁먹고	-9.99632
▁피해자	-9.99656
▁고생	-9.99762
율	-9.9979
도아니고	-9.99868
▁빼	-9.9989
보자	-9.99934
▁생각하면	-9.99944
늘	-9.99975
친구	-9.99988
감독님	-10.0001
▁망한	-10.0005
▁관객을	-10.0007
알바	-10.0009
▁자주	-10.0011
▁탑	-10.0012
▁처럼	-10.0013
문제	-10.0014
▁오바	-10.0016
아주	-10.0018
▁눈빛	-10.0019
▁작품은	-10.0019
링	-10.0019
▁명작입니다	-10.0032
었습니다	-10.0036
립	-10.0045
편의	-10.0046
▁이해하기	-10.0053
줌	-10.0054
기분	-10.0054
▁감동의	-10.0055
할까	-10.006
있어서	-10.0066
▁위해서	-10.0067
▁칼	-10.0077
형님	-10.0078
▁그럴	-10.0081
▁자신을	-10.0087
▁특별한	-10.0092
짜증나	-10.0092
거라	-10.0102
했나	-10.0103
▁무협	-10.0104
▁누군가	-10.0104
▁배우를	-10.0107
개도	-10.0107
하려고	-10.011
▁마이클	-10.0116
▁겨우	-10.0128
▁만나	-10.013
▁사진	-10.013
일이	-10.0131
났다	-10.0132
▁정도의	-10.0139
▁단어	-10.014
그리	-10.0144
을텐데	-10.0145
▁유명	-10.0146
▁취향	-10.0148
▁나왔	-10.0149
▁생각나서	-10.016
▁가치가	-10.0162
▁할말이	-10.0163
▁분들은	-10.0164
▁극치	-10.0164
▁크리스마스	-10.0165
▁바라	-10.0168
▁조작	-10.0169
▁그건	-10.0177
▁웃고	-10.0179
싶	-10.0183
▁웃	-10.0188
머리	-10.0188
▁필름	-10.0192
텐데	-10.0194
▁알겠는데	-10.02
▁대놓고	-10.0203
▁멀	-10.0211
▁문제가	-10.0212
▁있었는데	-10.0213
▁가치	-10.0213
년만에	-10.0216
응	-10.0217
▁여러가지	-10.0218
송	-10.0222
시간에	-10.0224
▁만든영화	-10.0225
▁보지마라	-10.0228
▁잔뜩	-10.023
▁모험	-10.023
사는	-10.0235
▁척	-10.0235
▁영화관	-10.0239
황	-10.0241
▁영상이	-10.0242
▁느꼈다	-10.0245
▁다르다	-10.0248
배경	-10.0248
려서	-10.0251
혹은	-10.0255
넹	-10.0259
▁남편	-10.0272
▁재난영화	-10.0275
좋아하는	-10.0283
▁훌륭하다	-10.0288
▁비극	-10.029
▁왠	-10.0292
▁듣고	-10.0294
▁출연진	-10.0299
▁미래	-10.0302
빼고	-10.0304
▁무엇인지	-10.0307
▁도전	-10.0314
▁노래도	-10.0317
▁악당	-10.0317
▁비하면	-10.0324
▁슬픔	-10.0324
▁못하다	-10.0325
▁엉성	-10.0327
편에	-10.0328
▁억지스러운	-10.033
▁쓰레기같은	-10.0333
취	-10.0335
▁죽이고	-10.0335
▁해석	-10.0336
▁시걸	-10.0336
셔	-10.0339
▁안타까운	-10.0341
앗	-10.0341
겁니다	-10.0348
났	-10.0351
▁분위기가	-10.0351
높	-10.0351
▁감정이	-10.0351
솔직히	-10.0353
▁최근에	-10.0356
▁국가	-10.0357
▁만들다니	-10.0358
▁없습니다	-10.0359
▁최고였다	-10.0366
▁연예인	-10.0366
완	-10.0367
▁이미지	-10.0368
▁좋아할	-10.0368
자체가	-10.0373
▁전설의	-10.0376
▁부모	-10.0378
▁아예	-10.038
▁지나도	-10.0381
▁등등	-10.0383
▁맥	-10.0386
▁연기자들	-10.0386
▁채널	-10.0389
▁대본	-10.0391
▁이런영화를	-10.0394
▁만들면	-10.0396
▁넘어	-10.0403
▁씬	-10.0405
▁다행	-10.041
렌	-10.041
것만	-10.0424
▁의미가	-10.0426
성을	-10.0427
▁색다른	-10.0438
▁골	-10.0439
해주세요	-10.0439
▁빌려	-10.0443
시즌	-10.0448
▁아픔	-10.045
▁높	-10.045
보이	-10.0455
▁비밀	-10.0459
..;;	-10.046
▁모르겠음	-10.0469
▁황	-10.0471
충	-10.0471
소재	-10.0473
감독의	-10.0479
▁각	-10.0482
로써	-10.0482
▁꽝	-10.0483
눈물	-10.0485
▁가득	-10.0486
▁홍	-10.0486
뭔가	-10.049
버리고	-10.049
▁두고	-10.0491
▁이래서	-10.0492
공감	-10.0495
▁남은	-10.0496
▁ᄏᄏᄏᄏᄏᄏ	-10.0509
▁철	-10.0511
득	-10.0511
기억	-10.0513
▁나머지	-10.0514
▁앞	-10.0516
▁끌	-10.0516
S	-10.0518
▁극장가서	-10.0525
▁수준의	-10.053
았다	-10.0533
안에	-10.0533
▁킬링타임용으로	-10.0534
했네	-10.0535
▁하나같이	-10.0539
▁따	-10.054
▁공부	-10.0543
▁보긴	-10.055
▁아닙니다	-10.0554
▁sf	-10.0554
▁전문가	-10.0557
껄	-10.0558
▁거기에	-10.0559
ing	-10.0562
▁그저그런	-10.0562
낼	-10.0565
면서도	-10.0568
▁변태	-10.0569
▁2014	-10.057
▁살아가는	-10.0572
▁해라	-10.0579
▁재미없었다	-10.0583
▁c	-10.0584
때매	-10.0586
아니다	-10.0587
▁집에	-10.0588
절대	-10.059
있게	-10.0591
▁적당	-10.0597
▁명품	-10.0597
▁나은	-10.0598
햇다	-10.06
▁답답하고	-10.0604
▁킬링타임	-10.0607
▁여운을	-10.0607
▁싸움	-10.0607
▁싶지	-10.0611
장르	-10.0613
▁키	-10.0613
▁만한	-10.0614
팔	-10.0617
도대체	-10.0628
▁팬이	-10.0629
▁21	-10.0632
▁소녀	-10.0635
▁연출과	-10.0635
~!!!	-10.0636
▁실패	-10.0636
v	-10.0636
30	-10.0638
▁높게	-10.0642
▁또다른	-10.0645
▁출연한	-10.0647
▁낚였다	-10.0648
줬	-10.0648
▁엉성하고	-10.065
▁회	-10.065
▁블록버스터	-10.0652
는건지	-10.0656
▁소소한	-10.0659
▁참신한	-10.0663
▁정말이지	-10.0666
▁한국인	-10.0679
▁외국	-10.068
▁노래가	-10.0685
똥	-10.0685
킹	-10.0687
▁에로영화	-10.0688
먹고	-10.0691
▁볼게	-10.0692
▁재미있습니다	-10.0693
원작	-10.0708
▁죽여	-10.0713
▁매력을	-10.0718
▁예쁘고	-10.0731
▁일품	-10.0741
▁재밌을	-10.0746
▁낮네	-10.075
▁씨	-10.075
▁괜찮다	-10.075
▁구성이	-10.0751
▁열연	-10.0752
둘	-10.0756
얼굴	-10.0759
▁아줌마	-10.076
할듯	-10.0761
▁봅니다	-10.0765
한게	-10.0767
▁쓸	-10.0769
▁낮아	-10.0775
한건	-10.0777
▁결코	-10.0779
▁연극	-10.0782
▁크	-10.0785
▁뭐하나	-10.0788
옥	-10.0795
▁낮다	-10.0796
▁이때	-10.0797
▁반전은	-10.08
▁아니야	-10.0801
▁가슴을	-10.0801
▁따로	-10.0804
▁길게	-10.0806
커플	-10.0809
만큼은	-10.0809
▁낚시	-10.081
▁웃기	-10.081
힘	-10.0811
▁있어야	-10.0819
봉	-10.0819
재밌게	-10.0821
만들	-10.0823
▁갈등	-10.0826
▁보기에	-10.0829
▁잼있	-10.0836
▁차이	-10.0839
▁최고임	-10.0841
▁내려	-10.0842
▁개연성도	-10.0846
시켜	-10.0847
▁방영	-10.085
건가요	-10.0854
자의	-10.086
현실	-10.0862
▁중에서	-10.0869
모든	-10.087
▁허무	-10.0871
▁많은데	-10.0872
▁결말을	-10.0873
▁요소	-10.0874
▁막장드라마	-10.0876
▁만남	-10.0881
년작	-10.0881
까지는	-10.0882
였으면	-10.0883
▁식상한	-10.0884
▁적당히	-10.0888
▁아나	-10.0889
▁애들은	-10.0889
▁종	-10.0895
▁먼가	-10.0895
▁돈을	-10.0895
님의	-10.0899
줘	-10.091
▁빠진	-10.0911
연기력	-10.0911
▁a	-10.0914
▁자극	-10.0917
▁잼나게	-10.0918
▁졸리	-10.0921
▁전쟁영화	-10.0925
▁풀	-10.0926
▁데리고	-10.0932
▁잘봤어요	-10.0934
하기도	-10.0935
▁관객들	-10.0936
탕	-10.0947
누나	-10.0951
▁봤을	-10.0952
▁코난	-10.0961
▁별로임	-10.0962
▁공포물	-10.0973
▁커플	-10.0975
▁군	-10.0975
▁주인공은	-10.0983
버리는	-10.0989
▁현실이	-10.0995
▁신선	-10.0999
▁찡	-10.1001
p	-10.1002
하시	-10.1003
▁아래	-10.1004
▁명화	-10.1007
▁오버	-10.1009
봤어요	-10.1009
▁집중해서	-10.101
▁풍자	-10.1011
죄	-10.1016
▁탄생	-10.1021
했을	-10.1024
▁둘이	-10.1026
▁불러	-10.1028
▁됩니다	-10.1029
i	-10.103
▁승리	-10.1039
잠	-10.1039
접	-10.104
버림	-10.1042
듯이	-10.1043
재미없음	-10.1055
사건	-10.106
▁떠	-10.106
웅	-10.1072
리고	-10.1075
▁몰랐다	-10.1076
로서	-10.1085
게임	-10.1087
▁살다살다	-10.109
▁다양한	-10.1092
▁이따위	-10.1096
A	-10.1099
사람들이	-10.11
▁없었	-10.1103
▁그만큼	-10.1107
▁만들었는지	-10.1111
▁아류작	-10.1117
▁한국에서	-10.1118
▁흐	-10.1124
▁이것이	-10.1125
수도	-10.1125
▁아무런	-10.1129
▁남네요	-10.113
▁어쩜	-10.1131
▁사상	-10.1139
▁생각했는데	-10.1141
▁기독교	-10.1144
▁해결	-10.1145
▁오래된	-10.1148
더빙	-10.1151
견	-10.1153
▁생활	-10.1153
▁살면서	-10.1154
▁재밌었	-10.1155
▁쓰는	-10.1159
▁얼	-10.1163
감이	-10.1164
▁넌	-10.1165
젤	-10.1166
▁이래	-10.1169
▁잘하고	-10.1169
▁친	-10.1177
▁빼면	-10.1179
▁낮지	-10.1181
▁갖고	-10.1183
▁멋	-10.1185
▁내용인지	-10.1185
▁채	-10.1187
튼	-10.1188
사회	-10.1189
▁찍어	-10.1191
▁맞아	-10.1192
h	-10.1202
지를	-10.1206
▁한마디	-10.1207
인건	-10.1209
으론	-10.121
▁수많은	-10.1212
▁철학	-10.1213
▁그자체	-10.1216
▁꽃	-10.1222
▁본영화	-10.1228
계의	-10.1229
▁보자	-10.1231
▁우주	-10.1232
▁빵점	-10.124
▁바랍니다	-10.1241
▁놀랍다	-10.125
▁이상하게	-10.1252
엄	-10.1253
째	-10.1256
▁짧은	-10.126
▁신파	-10.1262
▁가면	-10.1268
혜	-10.127
▁책을	-10.1275
점대는	-10.1275
▁핵노잼	-10.128
떄	-10.128
▁보다는	-10.1283
▁좋았을	-10.1285
♥♥♥	-10.1296
▁ᄋ	-10.1298
▁분노	-10.13
▁뭘까	-10.1305
센	-10.1314
▁국	-10.1321
▁보기에는	-10.1328
▁놀라운	-10.1329
▁궁금하다	-10.1333
지말고	-10.134
▁개봉한	-10.134
님이	-10.1345
▁플롯	-10.1351
것같아요	-10.1354
끝까지	-10.1355
▁특수효과	-10.1355
▁최고로	-10.1355
▁제임스	-10.1362
공포영화	-10.1366
였지만	-10.1366
▁볼수있는	-10.1373
욱	-10.1374
▁안맞는	-10.138
갔다	-10.138
▁망친	-10.138
▁발전	-10.1387
▁주제를	-10.1387
▁죽을	-10.1387
▁마이너스	-10.1392
▁여주가	-10.1395
▁영화보는	-10.1399
▁주기도	-10.14
힌	-10.1404
재밋	-10.1405
땅	-10.1408
▁근	-10.141
▁시청	-10.141
부족	-10.1411
제목	-10.1411
▁살린	-10.1417
▁교훈을	-10.1423
는것도	-10.1425
▁받는	-10.1425
▁꽤나	-10.1436
보지	-10.1438
▁연기력은	-10.1441
효	-10.145
명이	-10.1462
▁대부분	-10.1463
갔	-10.1472
▁어울리는	-10.1478
거죠	-10.1482
▁불쌍하다	-10.1483
▁부분도	-10.1484
▁심지어	-10.1496
▁손에	-10.1506
거같음	-10.1507
모두	-10.1508
▁영화들	-10.1509
점수	-10.1509
▁좋겠네요	-10.1511
보다도	-10.1511
▁형사	-10.1512
▁마지막까지	-10.1513
▁예쁘다	-10.1517
▁아쉽지만	-10.1518
▁했으면	-10.1523
▁이야기는	-10.1525
▁재미도없고	-10.1526
관계	-10.1528
▁전편	-10.1534
▁스토리의	-10.1538
▁자체는	-10.1539
▁사고	-10.1543
예요	-10.1544
이름	-10.1544
▁캬	-10.1549
▁놓고	-10.1553
▁않아서	-10.1555
엇다	-10.1558
지루함	-10.1559
▁반드시	-10.1571
▁넘게	-10.1571
▁봤을까	-10.1578
▁정작	-10.1579
▁가벼운	-10.1583
▁틀	-10.1584
▁내용과	-10.1595
▁어느정도	-10.1604
▁뜨	-10.1608
▁생각으로	-10.1608
랄까	-10.1609
▁인간들	-10.161
▁T	-10.161
▁등장인물	-10.1612
▁불편한	-10.1613
▁하네	-10.1617
있나	-10.1623
▁첫사랑	-10.1624
▁외계인	-10.1626
착	-10.1626
▁D	-10.1629
▁반복	-10.163
▁시청률이	-10.1632
▁아까웠다	-10.1635
▁역사를	-10.1642
▁애기	-10.1644
▁ᄀ	-10.1647
▁엔딩이	-10.1647
▁받았	-10.1648
▁포스터가	-10.165
밥	-10.1651
▁떨어지고	-10.1653
▁바다	-10.1654
배우들의	-10.1655
되면	-10.1661
나게	-10.1664
▁아깝	-10.1664
나와	-10.1665
하시는	-10.167
▁소설을	-10.167
▁열정	-10.1672
▁좋았	-10.1673
▁쓰고	-10.1673
▁약간의	-10.1675
▁있다니	-10.1678
▁처음에는	-10.1685
▁인물들	-10.1686
▁일반	-10.1686
▁명작을	-10.1689
▁갔	-10.1689
왔	-10.1689
명의	-10.1692
▁으리	-10.1692
▁초등학생	-10.1694
▁주윤발	-10.1694
▁다운	-10.1696
▁인내심	-10.1698
▁아름답게	-10.1701
▁고통	-10.1705
▁어설프고	-10.1706
▁풍경	-10.1712
▁전체	-10.1712
▁했	-10.1722
▁존경	-10.1724
▁임팩트	-10.1725
▁변화	-10.1725
▁술	-10.1726
▁복	-10.173
없어서	-10.1731
▁그립다	-10.1735
▁그야말로	-10.1736
받고	-10.1743
▁평론가들	-10.1744
▁내가본	-10.1747
▁소재도	-10.175
또한	-10.1751
▁태어나서	-10.1752
▁한편의	-10.1755
▁볼때	-10.1755
▁아까운영화	-10.1757
▁친구가	-10.176
영화로	-10.176
이든	-10.1761
▁헤	-10.1766
▁당신은	-10.1768
▁감사	-10.1773
▁무서워	-10.1775
▁짜증나서	-10.1776
▁원작에	-10.178
▁1,2	-10.1781
..........	-10.1784
▁소년	-10.1787
화이팅	-10.1791
▁모르	-10.1793
▁로그인	-10.1793
▁히	-10.1799
▁시리즈는	-10.1802
▁귀여워	-10.1805
▁참신	-10.1808
▁러닝타임	-10.1814
▁일부러	-10.1823
▁보던	-10.1825
▁강렬한	-10.183
▁해리포터	-10.1839
▁유일한	-10.1839
▁쓸데없이	-10.1843
▁당연히	-10.1845
▁싸우는	-10.1846
▁어른이	-10.1847
▁강한	-10.1848
▁코미디영화	-10.185
▁나름대로	-10.1853
▁짜증만	-10.1855
▁장국영	-10.1861
▁아쉽	-10.1862
ᄋᄋ	-10.1864
설정	-10.1867
것같은	-10.187
▁어렵다	-10.1873
▁하나로	-10.1873
▁한번도	-10.1874
▁이딴걸	-10.1875
끈	-10.1877
▁첨엔	-10.1879
▁뭉클	-10.1879
대는	-10.1882
▁만들수	-10.1884
▁효과	-10.1887
▁몇번	-10.189
▁교육	-10.189
겠죠	-10.1892
▁뭐니	-10.1893
▁들고	-10.1896
▁한국의	-10.1907
▁선물	-10.1909
▁해피엔딩	-10.191
▁한심	-10.1911
▁희망을	-10.1916
▁많은걸	-10.1917
▁실력	-10.1926
▁받은	-10.1942
▁처음에	-10.1944
▁of	-10.1946
이었던	-10.1949
짝	-10.1961
▁멋있	-10.1962
*	-10.1963
▁괜찮았다	-10.1963
▁옛	-10.1965
▁유일하게	-10.197
스토리도	-10.1975
▁본게	-10.1977
▁모든걸	-10.1981
▁심형래	-10.1988
했어	-10.1989
▁상처	-10.1993
한다면	-10.1993
▁본지	-10.1996
▁감동은	-10.2
▁수작이다	-10.2005
▁괜찮	-10.2007
//	-10.2007
▁다시는	-10.2008
▁느낌의	-10.2011
▁시간아깝다	-10.2018
▁ᄍᄍᄍ	-10.2024
ᅲᅮ	-10.2026
▁장면도	-10.2026
▁미모	-10.2027
▁재미없어서	-10.2029
부분	-10.2029
▁음식	-10.2031
영화의	-10.2031
▁남아	-10.2032
▁어이	-10.2038
봤지만	-10.204
▁낮게	-10.2041
▁있네	-10.2044
▁핵	-10.2046
▁아니지	-10.2047
엘	-10.2051
▁영상과	-10.2052
▁하는게	-10.2055
시대	-10.2057
스러움	-10.2058
00	-10.2059
▁그려	-10.2062
하는건	-10.2073
▁장면들	-10.2073
▁배우들은	-10.2074
갠적으로	-10.2075
해야지	-10.2078
▁괜찮음	-10.208
하길	-10.2084
▁나에겐	-10.2087
▁나랑	-10.2087
▁내생에	-10.2091
좋음	-10.2091
들고	-10.2098
▁dvd	-10.2098
▁작	-10.2099
▁여자의	-10.21
봅니다	-10.2102
▁뱀파이어	-10.2106
▁새벽에	-10.2109
▁따뜻하고	-10.211
쓴	-10.2113
▁이상하고	-10.2116
▁웃으면서	-10.2118
속의	-10.212
▁재미로	-10.2121
▁보다니	-10.2124
쓰고	-10.2125
▁케이블에서	-10.2128
▁모를	-10.2128
해준	-10.213
▁요리	-10.213
거같아요	-10.2137
▁배경음악	-10.2145
고싶다	-10.2149
▁할아버지	-10.215
▁오락영화	-10.2151
인이	-10.2152
▁봐야하는	-10.2158
▁많아서	-10.2161
표현	-10.2161
사이	-10.2162
영화에	-10.2162
학년	-10.2165
▁이해를	-10.2167
▁미소	-10.2168
롭	-10.2175
재밌어요	-10.218
뜻	-10.2183
g	-10.2186
▁봤네	-10.2186
시나리오	-10.2186
걍	-10.2186
긴한데	-10.22
▁보이	-10.2201
같	-10.2202
▁흐르는	-10.2203
롱	-10.221
▁이소룡	-10.2217
겠어요	-10.222
▁인도	-10.2229
▁주말	-10.223
▁주제가	-10.2239
▁표	-10.2241
▁돋보이는	-10.2241
▁명작이	-10.2243
▁혹시	-10.2246
▁/	-10.2248
▁색	-10.2248
▁아깝고	-10.2248
▁울리는	-10.225
▁별로고	-10.2252
꾸	-10.2258
▁곧	-10.2263
▁다시보니	-10.2266
▁가정	-10.2266
▁가수	-10.2271
▁읽	-10.2271
본영화	-10.228
▁하아	-10.2283
▁캐	-10.2284
▁잤다	-10.2284
▁싶	-10.2285
신고	-10.2285
안되	-10.2288
▁됐	-10.2289
▁이런건	-10.229
▁재밌어서	-10.2294
▁영화인지	-10.2296
▁썩	-10.2296
껏	-10.2298
일듯	-10.2299
력이	-10.2301
버리	-10.2302
거리는	-10.2307
▁놈	-10.2313
▁아쉬움이	-10.2315
빨리	-10.2315
▁현실과	-10.2316
부분이	-10.2316
재미없	-10.232
19	-10.232
갑니다	-10.2321
▁가족이	-10.2325
▁영화인가	-10.2325
▁재밋어요	-10.233
ᄅ	-10.2331
것들	-10.2333
▁지나	-10.2334
..^^	-10.2334
▁이쁘	-10.2344
▁배트맨	-10.2349
▁기술	-10.235
지않는	-10.2353
▁들어가	-10.2357
▁조니뎁	-10.236
▁맞지	-10.2363
▁다운받아	-10.2365
▁숨겨진	-10.2369
▁느낀	-10.237
▁잘못된	-10.2373
인의	-10.2373
개그	-10.2373
▁자식	-10.2377
풀	-10.2379
냐고	-10.2382
▁머리가	-10.2382
▁추리	-10.2383
점정도	-10.2383
▁대통령	-10.2383
레이	-10.2384
꿀잼	-10.2387
▁싶을	-10.2394
해진다	-10.2397
페	-10.2398
▁무언가	-10.2399
--	-10.2401
▁=	-10.2403
▁최고의영화	-10.2404
▁하다가	-10.2405
▁자신	-10.2405
최	-10.2406
▁본거	-10.2407
▁없었음	-10.2407
겟다	-10.2409
▁시간만	-10.2409
나오고	-10.241
하다니	-10.2411
▁제목만	-10.2411
▁초딩때	-10.2413
▁의문	-10.242
▁착각	-10.2423
자는	-10.2433
▁마음으로	-10.2437
▁싶어요	-10.2438
으니까	-10.2439
▁삶이	-10.2441
▁영환데	-10.245
세계	-10.2451
▁엄마가	-10.2451
혁	-10.2453
▁장면을	-10.2456
놓은	-10.2457
션	-10.2458
▁섹시	-10.246
▁가족영화	-10.2462
▁남자주인공	-10.2463
w	-10.2464
▁울컥	-10.2465
▁폴	-10.2467
▁나네요	-10.2468
ᅥ	-10.2469
어쩌	-10.247
▁디워	-10.2471
이여	-10.2472
▁교과서	-10.2473
▁짜증이	-10.2475
오는	-10.2479
▁짠	-10.2482
▁언제봐도	-10.2498
▁환상	-10.2498
▁유치해	-10.25
▁대중	-10.25
▁짝이	-10.2502
▁단순히	-10.2503
▁안간다	-10.2504
▁세상이	-10.2505
▁시간가는줄	-10.2506
▁마약	-10.2509
▁클레멘타인	-10.251
누	-10.251
져서	-10.2516
▁줍니다	-10.2525
▁60	-10.2527
▁어색하고	-10.2529
▁옷	-10.2534
▁삼류영화	-10.2534
O	-10.2535
▁^	-10.2539
▁잭	-10.254
▁아냐	-10.2541
▁내게	-10.2542
보니까	-10.2543
려면	-10.2545
▁시원	-10.2548
▁진수	-10.2552
자나	-10.2565
하지마라	-10.2566
럽	-10.257
▁어릴	-10.2576
▁보지마	-10.2576
▁올리	-10.258
▁불쌍한	-10.2582
▁ᄏᄏᄏᄏᄏᄏᄏ	-10.2586
▁후속작	-10.259
▁아니라고	-10.2591
이죠	-10.2591
▁받	-10.2591
▁예능	-10.2598
▁멋있는	-10.2599
팅	-10.2603
▁희대의	-10.2604
▁맛이	-10.2605
▁감독을	-10.2606
▁광	-10.261
▁격	-10.261
멜로	-10.2614
▁배우도	-10.2619
▁여러번	-10.262
▁다르게	-10.2621
▁하길래	-10.2621
▁궁금	-10.2627
▁러시아	-10.2628
▁떨어짐	-10.263
매력	-10.2637
▁사운드	-10.2637
▁반전을	-10.264
기위해	-10.2643
가요	-10.2647
▁터미네이터	-10.2649
▁모르겠네요	-10.2658
▁개노잼	-10.2661
살아	-10.2663
나옴	-10.2665
전쟁	-10.2666
▁멋지고	-10.2669
▁지겹다	-10.2669
으로서	-10.2672
▁없나요	-10.2675
▁중반	-10.2679
▁올려	-10.2679
▁짜증남	-10.2679
▁시리즈중	-10.2679
▁얼굴이	-10.268
▁잼있음	-10.2684
쓰레기영화	-10.2691
▁있다고	-10.2697
▁무섭	-10.2698
슈	-10.2698
정신	-10.27
B	-10.2718
였나	-10.2721
▁안봐도	-10.2722
에서의	-10.2723
!!!!!!!!!!!!!!!!	-10.2724
골	-10.2725
▁뛰어	-10.2727
▁짜임새	-10.2728
`	-10.2731
▁편견	-10.2731
▁빵	-10.2733
싱	-10.2734
I	-10.2734
캐스팅	-10.2735
멋	-10.2737
▁로버트	-10.2741
이영화	-10.2742
이해	-10.2742
되었다	-10.2746
▁배우는	-10.2747
▁그것도	-10.2747
▁이토록	-10.2748
▁꾸	-10.275
보게	-10.2751
▁밀	-10.2757
▁방법	-10.2759
분을	-10.2761
▁여주인공이	-10.2761
▁높아서	-10.2763
j	-10.2766
▁알겠다	-10.2776
엿	-10.2776
었지만	-10.2777
분만에	-10.2777
▁웬	-10.2782
내용은	-10.2784
▁아이들과	-10.2785
▁봤다면	-10.2785
▁달라	-10.2789
시는	-10.279
었고	-10.279
▁보러	-10.2791
▁운	-10.2797
▁앤	-10.2802
▁봐도봐도	-10.2802
▁재밋음	-10.2803
어린	-10.2805
▁이뻐서	-10.2805
▁이러	-10.2807
▁매일	-10.2808
재미도	-10.281
ᅵ	-10.2811
▁사투리	-10.2811
▁그동안	-10.2811
▁오브	-10.2814
▁안습	-10.2819
영화인데	-10.2824
▁청	-10.2829
했다는	-10.2835
부분은	-10.2836
▁페	-10.2838
▁실화를	-10.2839
북	-10.2846
▁꺼	-10.2851
▁이런영화는	-10.2851
▁가고	-10.2853
▁임	-10.286
▁이것	-10.286
순간	-10.2866
▁잊고	-10.2866
▁뒷	-10.2867
▁부부	-10.2873
▁배경이	-10.2873
▁말자	-10.2874
▁한번쯤	-10.2878
▁받고	-10.288
기까지	-10.2881
▁도무지	-10.2881
좋은영화	-10.2881
웠	-10.2881
▁무시	-10.2885
지않은	-10.2889
후회	-10.2889
었어요	-10.2893
▁끝에	-10.2893
제대로	-10.2896
▁갑니다	-10.2898
있었다	-10.2899
재밌어	-10.29
분은	-10.2906
더라면	-10.2917
▁배역	-10.2924
▁레이	-10.2925
▁조절	-10.2926
▁같고	-10.293
이후	-10.293
▁궁금해서	-10.2931
있지	-10.2931
놀	-10.2931
낮	-10.2931
▁믿을	-10.2932
▁사람도	-10.2933
▁블랙	-10.2933
▁전설	-10.2937
▁좀비영화	-10.2942
▁이름이	-10.2947
쳤	-10.295
스럽게	-10.295
▁에이	-10.2954
▁하지원	-10.2955
따위	-10.2955
▁짜증나고	-10.2959
▁먹는	-10.2963
▁그것	-10.2964
▁작품입니다	-10.2967
▁긴장	-10.297
▁집착	-10.2977
가지	-10.2982
많	-10.2982
는거야	-10.2986
▁미안	-10.2986
조금	-10.2992
든다	-10.3004
여주	-10.3004
극장에서	-10.3009
구성	-10.301
▁잘하는	-10.3013
▁붙	-10.3016
▁봤을때	-10.302
▁왤케	-10.3021
버려	-10.3021
▁야동	-10.3021
엔딩	-10.3022
▁재개봉	-10.3022
▁믿	-10.3023
▁공짜로	-10.303
▁반담	-10.303
▁없게	-10.3031
▁연출은	-10.3033
함과	-10.3033
▁선생님	-10.3033
▁컴퓨터	-10.304
▁아놀드	-10.3043
▁허술한	-10.3044
▁폭	-10.3045
웃겨	-10.3049
▁루	-10.3053
▁하정우	-10.3056
▁괜찮았는데	-10.3057
시길	-10.3059
보구	-10.306
▁쇼	-10.3061
▁업	-10.3062
▁시대에	-10.3063
▁영상미가	-10.307
▁2000	-10.3071
▁정신병자	-10.3072
했으나	-10.3077
▁거북	-10.3087
르는	-10.3092
▁인형	-10.3098
▁탈출	-10.3101
▁인생에	-10.3103
켜	-10.3107
십	-10.3116
상을	-10.313
례	-10.3131
▁아까울	-10.3144
▁가능한	-10.3154
▁생각도	-10.3159
▁집중이	-10.316
▁you	-10.3163
▁각색	-10.3166
클	-10.3167
▁무엇인가	-10.317
큰	-10.3173
▁어거지	-10.3173
다는게	-10.3174
유치	-10.3176
▁앞에	-10.3177
▁잔잔하게	-10.3178
▁대신	-10.3178
졸	-10.318
햇는데	-10.3181
▁제이슨	-10.3182
▁소중함을	-10.3183
▁기대없이	-10.3187
▁볼만했다	-10.3191
▁나레이션	-10.3195
▁쓸데없는	-10.3195
▁영화인	-10.3197
겠습니다	-10.3198
▁Good	-10.3199
▁S	-10.3204
▁일본은	-10.3209
▁남겨	-10.3212
사람들은	-10.3214
▁빛을	-10.3215
▁아들이	-10.3217
▁최고봉	-10.322
▁전쟁의	-10.3222
▁여자는	-10.3223
▁적어도	-10.3228
▁설정이	-10.323
놓	-10.324
▁뭥미	-10.3241
▁과정	-10.3244
▁사랑해	-10.3244
▁가득한	-10.3251
▁여러분	-10.3254
로만	-10.326
옹	-10.3265
사가	-10.3266
번은	-10.3267
▁결론은	-10.327
12	-10.327
▁돌아	-10.3273
▁돼	-10.3273
생각이	-10.3274
▁히어로	-10.3279
류영화	-10.3283
족	-10.3285
▁사실을	-10.3287
▁할리우드	-10.3287
▁귀엽다	-10.3288
▁없냐	-10.329
▁호구	-10.3295
느라	-10.3306
er	-10.3308
▁성격	-10.3311
인데도	-10.3312
▁담배	-10.3312
▁결론	-10.3313
▁않았지만	-10.3315
▁믿고보는	-10.3315
▁디테일	-10.3316
상황	-10.3317
▁유쾌하게	-10.3318
▁명대사	-10.3318
개인적으로	-10.3322
▁인생이	-10.3325
▁좋네	-10.3326
▁조화	-10.3326
아무리	-10.3329
먹는	-10.3339
▁오빠	-10.3346
▁풀어	-10.3348
▁놀	-10.3351
물이	-10.3352
▁어쩔수	-10.3353
스럽고	-10.3357
▁오랫만에	-10.3358
존나	-10.336
치곤	-10.3361
▁우뢰매	-10.3361
▁영화라니	-10.3363
자들	-10.3366
못하고	-10.3366
▁돈내고	-10.3368
▁의상	-10.3369
▁좋다고	-10.3369
▁유덕화	-10.337
할만한	-10.3375
▁만약	-10.3376
▁정도면	-10.3378
▁인간은	-10.3378
장난	-10.3381
▁잠이	-10.3381
▁일본의	-10.3384
연기는	-10.3385
▁자극적인	-10.3385
혼	-10.3389
▁아역	-10.3393
▁뒤에	-10.3395
▁내면	-10.3397
▁송	-10.3397
▁만난	-10.3398
영화입니다	-10.3399
리스	-10.34
▁되네요	-10.3405
▁톰	-10.3408
▁결과	-10.3409
▁영화화	-10.3409
끝나	-10.341
▁황당한	-10.3412
씨는	-10.342
▁손발	-10.3421
아저씨	-10.3422
▁명불허전	-10.3424
▁투자	-10.3424
짜증	-10.3431
했지	-10.3432
▁만들었나	-10.3434
▁보려	-10.3436
▁이보다	-10.3439
▁확인	-10.344
▁본건데	-10.3441
값	-10.3443
홍	-10.3446
▁찍고	-10.345
줘야	-10.3452
▁실험	-10.3456
렁	-10.3456
▁늦게	-10.3456
▁명복을	-10.3456
▁동시에	-10.3456
▁서울	-10.3459
좋았다	-10.3466
필요	-10.3468
▁의사	-10.347
▁포스터에	-10.347
▁타고	-10.347
▁내생애	-10.3471
▁매미	-10.3472
컷	-10.3472
▁좋을듯	-10.3474
▁봐야지	-10.3475
▁흥	-10.3477
▁송강호	-10.3479
▁봤는데도	-10.348
으면서	-10.3485
▁모른다	-10.3486
▁한국영화의	-10.3486
▁장난하냐	-10.3487
▁창	-10.349
▁재미없다고	-10.3495
랄	-10.35
▁살인마	-10.35
점이상	-10.3502
▁기대이상	-10.3502
미국	-10.3504
▁보았는데	-10.3506
▁만들어서	-10.3508
그러나	-10.3509
▁분들이	-10.3509
간의	-10.3509
꼴	-10.3511
▁안에	-10.3515
이었습니다	-10.3515
▁영화였음	-10.3517
시고	-10.3529
▁절정	-10.3538
▁아깝네	-10.354
스토리가	-10.3543
에만	-10.3548
있지만	-10.3549
세상	-10.355
▁답답함	-10.3555
▁안나	-10.3564
▁생각할	-10.3564
▁목소리가	-10.3566
▁보시면	-10.3571
▁시나리오가	-10.3572
▁읽어	-10.3573
▁연기자	-10.3575
▁사랑해요	-10.3577
▁담은	-10.3579
▁생에	-10.3581
▁최소	-10.3587
끔	-10.3587
▁기적	-10.3593
지요	-10.3594
▁짐	-10.3596
잇는	-10.3598
압	-10.3598
▁안볼	-10.36
받는	-10.3605
▁좋았을텐데	-10.3606
▁어쩌면	-10.3606
용으로	-10.3606
▁맘	-10.3609
▁전반적으로	-10.361
▁가까운	-10.3624
분동안	-10.3627
코믹	-10.3627
▁엄	-10.3627
▁아깝네요	-10.3628
▁제니퍼	-10.3629
그럼	-10.363
▁스티븐	-10.3633
▁읽고	-10.3633
▁탄탄하고	-10.3635
▁그것이	-10.364
▁공감할	-10.3641
▁민	-10.3641
▁짐캐리	-10.3642
▁재미있는데	-10.3642
▁한국판	-10.3645
▁매력에	-10.3647
▁독일	-10.3649
▁포스터만	-10.3652
▁땅	-10.3653
▁느낌은	-10.3655
▁과장	-10.3658
▁반대	-10.3658
▁콩	-10.3663
▁액션과	-10.3663
나도	-10.3665
▁쉬	-10.3666
▁축구	-10.3666
▁명연기	-10.3672
▁슬	-10.3674
같아	-10.3675
▁찾	-10.3677
▁시작부터	-10.3684
씀	-10.3689
뿌	-10.3703
▁권	-10.3707
▁이번에	-10.3709
▁알았	-10.3709
▁무섭고	-10.3709
뒤	-10.3713
▁없으면	-10.3716
할뿐	-10.3725
▁홍상수	-10.3727
▁죄	-10.3728
▁전개와	-10.3738
극장	-10.3741
▁로코	-10.3746
▁십	-10.3755
▁듭니다	-10.3756
▁기존	-10.376
▁땜에	-10.3762
▁아무생각없이	-10.3768
▁만들어낸	-10.3769
▁좋지	-10.3771
몽	-10.3776
▁박진감	-10.3779
하겠다	-10.378
▁정우성	-10.3781
갓	-10.3781
▁은근히	-10.3783
▁친구랑	-10.3784
▁야구	-10.3787
...........	-10.3789
▁왜곡	-10.379
▁싶었다	-10.379
▁초등학교	-10.3793
▁명장면	-10.3793
▁깡패	-10.3794
아요	-10.3798
▁출	-10.3799
임을	-10.3804
▁생각난다	-10.3806
▁:)	-10.381
▁자동차	-10.3812
▁교훈도	-10.3812
▁웃는	-10.3815
▁판단	-10.3817
▁다시보고	-10.3821
▁보내	-10.3825
▁이런류의	-10.3827
▁사람들에게	-10.383
이어서	-10.3831
▁재난	-10.3832
▁낫	-10.3835
▁사람이라면	-10.3838
▁행	-10.3838
▁보는거	-10.3841
▁그것을	-10.3848
▁그당시	-10.3848
▁환경	-10.3854
하려	-10.3855
것같은데	-10.3857
였지	-10.3858
▁인터넷	-10.386
▁샘	-10.386
▁시간에	-10.386
괴	-10.3868
▁유지	-10.3869
냥	-10.3875
▁보고싶	-10.3876
▁어울리지	-10.3876
떠	-10.3878
는듯	-10.388
re	-10.3881
▁이드라마	-10.3881
내내	-10.3885
허접	-10.3891
▁진지한	-10.3893
▁니들	-10.3894
▁제목을	-10.3894
분의	-10.3897
▁잇	-10.3905
▁개인	-10.3906
▁빕니다	-10.391
▁역겨운	-10.3911
▁블랙코미디	-10.3911
▁다신	-10.3912
▁예술영화	-10.3913
▁최강	-10.3915
▁담긴	-10.3917
▁치유	-10.3919
배우가	-10.3919
▁이것보단	-10.3919
뻔한	-10.3922
▁빨	-10.3923
줘서	-10.3926
▁한명	-10.3927
▁나오는데	-10.3928
논	-10.3929
뿐이다	-10.3936
▁최소한	-10.3937
푸	-10.3941
▁왠만한	-10.3941
높은	-10.3942
▁잼잇	-10.3947
▁깜짝	-10.3948
그래	-10.3951
▁영화예요	-10.3953
▁볼려고	-10.396
두고	-10.396
▁영원한	-10.3962
▁책으로	-10.3963
▁보이지	-10.3963
15	-10.3963
하는것	-10.3964
▁연인	-10.3968
▁이해불가	-10.397
▁인상적	-10.3971
▁귀여움	-10.3976
~~!!	-10.3976
▁각자	-10.3978
▁매니아	-10.398
▁사랑합니다	-10.3981
▁귀엽	-10.3981
아니면	-10.3983
▁잔잔하면서	-10.3986
▁누군지	-10.399
▁명작은	-10.3991
아직도	-10.3994
▁100%	-10.3995
▁무섭지	-10.3996
▁느낌이다	-10.3997
▁허무한	-10.4009
▁강력	-10.401
졌	-10.4011
하던데	-10.4019
가며	-10.4022
▁진한	-10.4023
▁나이가	-10.4027
▁탈	-10.4032
▁영화속	-10.4036
▁한개도	-10.4045
▁야한	-10.4047
특	-10.4052
▁아진짜	-10.4052
섭	-10.4052
▁동네	-10.4053
▁시대의	-10.4053
답게	-10.4053
~~^^	-10.4057
었으면	-10.406
쟁이	-10.4064
닝	-10.4066
▁어두운	-10.4066
▁웰메이드	-10.4066
z	-10.4069
▁알았음	-10.4074
▁적절한	-10.4078
▁첨부터	-10.4078
▁액션을	-10.4081
▁못보겠다	-10.4083
▁본듯	-10.4093
▁평균	-10.4096
샤	-10.4098
▁아프다	-10.4099
같고	-10.4101
▁없는게	-10.4101
▁스릴도	-10.4102
▁볼만합니다	-10.4103
하더라	-10.4107
▁잠시	-10.4108
▁뜬금없는	-10.4111
▁훌륭	-10.4115
▁찾아서	-10.4119
▁울면서	-10.4122
▁요새	-10.4126
▁슈퍼	-10.4127
▁억지감동	-10.4127
헤	-10.413
▁재미있어	-10.413
▁파괴	-10.4134
▁혹시나	-10.4139
보고싶다	-10.4139
시간동안	-10.414
▁미국의	-10.4141
▁유치해서	-10.4142
점부터	-10.4142
옴	-10.4143
▁안보는게	-10.4149
와의	-10.4149
▁주변	-10.415
여운이	-10.4154
▁소재의	-10.4157
출연	-10.4165
▁부족함	-10.4174
팀	-10.4176
소재와	-10.4177
라는걸	-10.4179
그렇게	-10.4179
▁영화라는	-10.418
▁필	-10.418
내고	-10.418
▁아무도	-10.4181
이예요	-10.4187
편에서	-10.4187
▁피해	-10.4188
웃기	-10.4191
집니다	-10.4193
▁몰	-10.4195
하거나	-10.4197
▁연결	-10.4197
..1	-10.4199
▁죽이	-10.4203
▁테러	-10.421
콘	-10.4213
▁풋풋한	-10.4225
▁이도저도	-10.4226
▁여자주인공	-10.4226
▁취	-10.4227
▁거기다	-10.4227
▁가족의	-10.4227
▁괜찮았음	-10.4227
▁망할	-10.4231
흐	-10.4231
▁남기	-10.424
▁찾는	-10.4242
▁것에	-10.4243
▁일부	-10.4245
▁초반부	-10.4247
▁주지	-10.4248
▁찍는	-10.4255
▁터	-10.4257
▁류승범	-10.426
▁품	-10.4262
엄청	-10.4266
싸움	-10.4267
%	-10.4267
신이	-10.4268
바람	-10.4269
▁마지막이	-10.427
▁잘만들었다	-10.4272
▁보라	-10.4272
▁내용에	-10.4273
▁남성	-10.4276
▁들었	-10.4277
▁전체적인	-10.4277
대가	-10.4278
▁배급사	-10.4278
편집	-10.428
▁장애인	-10.4284
▁싶었던	-10.4285
▁배경으로	-10.4286
▁장면들이	-10.4289
▁마지막엔	-10.429
▁빛나는	-10.429
스타일	-10.4299
끼리	-10.4301
▁기가	-10.4304
▁공감도	-10.4308
▁찬	-10.431
▁말하고자	-10.4313
▁푸	-10.4318
과는	-10.432
장면은	-10.4327
버릴	-10.4339
래도	-10.4339
▁정보	-10.434
온다	-10.4342
거면	-10.4345
에다가	-10.4351
▁사랑한다	-10.4352
▁폭발	-10.4357
▁드네요	-10.4365
▁의도가	-10.4365
▁ᄏᄏᄏᄏᄏᄏᄏᄏ	-10.4365
▁동양	-10.4371
▁ᄃᄃᄃ	-10.4371
소설	-10.4373
랜	-10.4374
▁빌	-10.4382
스터	-10.4382
▁죽고	-10.4384
▁놀랐다	-10.4386
으로써	-10.4387
▁당신	-10.4389
▁재미있었습니다	-10.4391
깔	-10.4393
▁놀란	-10.4395
▁모르지만	-10.4397
▁연출력이	-10.4398
▁감독과	-10.4402
보는게	-10.4403
밤	-10.4407
▁러브라인	-10.4408
▁향수	-10.4409
▁전화	-10.4412
▁빠져서	-10.4412
▁섬	-10.4413
▁괜찮게	-10.4416
▁드디어	-10.4417
E	-10.4417
▁자기가	-10.4418
보인다	-10.442
▁맞춰	-10.4423
▁나을듯	-10.4425
ᄌ	-10.4425
▁있었으면	-10.4425
▁무리	-10.4426
▁두번째	-10.4427
원이	-10.4431
궁	-10.4431
X	-10.4436
▁반전에	-10.444
▁기대이하	-10.4441
▁마이	-10.4443
▁여름	-10.4443
▁않은데	-10.4447
▁재미있었음	-10.4454
▁퍼	-10.4456
▁웃기는	-10.4456
▁다행이다	-10.4459
▁거지같은	-10.4462
놨	-10.4466
지루하고	-10.4467
복수	-10.4468
안됨	-10.4469
▁바꾸	-10.4476
못하는	-10.4477
▁무대	-10.4485
▁그렇지만	-10.4487
있던	-10.4489
▁단편	-10.4492
▁괜찮고	-10.4492
▁인상적인	-10.4499
▁있었	-10.45
▁천국	-10.45
▁동성애	-10.4502
100	-10.4503
주연	-10.4504
▁인생은	-10.4508
▁소개	-10.4515
▁폐지	-10.4515
▁기억나는	-10.4519
▁팀	-10.4522
재미있다	-10.4522
보내	-10.4523
분위기	-10.453
긴장감	-10.4531
▁잘한다	-10.4535
좋네요	-10.4537
한것	-10.4547
▁깊게	-10.455
욤	-10.455
▁d	-10.4552
▁뭐고	-10.4554
▁만들었을까	-10.4555
▁진지하게	-10.4556
▁보았던	-10.4557
▁끄	-10.4557
▁이병헌	-10.4559
이었는데	-10.4566
▁밤에	-10.4567
▁박중훈	-10.4567
▁했음	-10.4568
▁깔끔한	-10.457
▁되는데	-10.4573
▁재밌었던	-10.4575
▁작가의	-10.4578
확	-10.458
▁소화	-10.458
아깝	-10.4589
▁나오네	-10.459
편까지	-10.4593
▁논	-10.4594
▁부르	-10.4596
^-^	-10.4597
뭔	-10.4597
했을때	-10.4598
▁안본다	-10.4603
헐	-10.4604
▁브루스	-10.4606
졸작	-10.4606
▁생각나	-10.4609
문화	-10.461
▁삭제	-10.4615
했다고	-10.4636
▁응원	-10.4636
느낌이	-10.4636
▁탄탄	-10.4636
▁커	-10.4636
▁ᅲᅲᅲᅲ	-10.4637
▁난리	-10.4638
▁혼	-10.4644
▁욕심	-10.4648
뽑	-10.4648
▁쭉	-10.4649
▁평범	-10.4649
▁어이없다	-10.4652
▁끝나서	-10.4653
애들이	-10.4654
▁속이	-10.4656
▁살려	-10.4656
부터가	-10.466
▁영화네	-10.4667
0%	-10.4668
▁X	-10.4669
▁돼지	-10.4683
▁설득력	-10.4684
▁엘	-10.4686
긴하지만	-10.469
▁쩌는	-10.4695
년대에	-10.4695
▁극중	-10.4698
영이	-10.4698
▁언니	-10.4701
목소리	-10.4704
▁버리고	-10.4705
▁맹	-10.4708
꾼	-10.4714
▁정도가	-10.4717
▁은근	-10.4718
▁합	-10.4718
▁알았네	-10.4719
▁조금은	-10.4722
▁미안하다	-10.4723
▁양심	-10.4724
워서	-10.4725
낫	-10.4727
▁오프닝	-10.473
▁교	-10.4731
▁어설프다	-10.4733
하진	-10.4734
물론	-10.4736
나온다	-10.4736
에대해	-10.4738
▁EBS	-10.4739
▁무거운	-10.4739
▁기대한	-10.4742
▁매력적이	-10.4743
▁요소가	-10.4744
▁가족애	-10.4747
▁운명	-10.4747
▁빵빵	-10.4747
▁충격적	-10.4748
▁예쁘	-10.4749
자식	-10.475
▁않았던	-10.475
스키	-10.4752
▁드라마입니다	-10.4755
▁캐릭터들이	-10.4756
▁뜬금없이	-10.4761
아빠	-10.4761
▁개콘	-10.4766
▁감동적이네요	-10.4766
재미있	-10.4769
했을까	-10.477
▁판	-10.4771
▁베드신	-10.4773
▁비행기	-10.4775
가장	-10.4777
▁언젠가	-10.4778
▁쏘	-10.4778
▁사랑스럽다	-10.4784
▁보라고	-10.4784
극히	-10.4785
▁소장하고	-10.4789
다큐	-10.4804
▁분량	-10.4804
▁아기	-10.4807
▁빼곤	-10.481
장이	-10.4811
▁멍	-10.4811
돈주고	-10.4812
▁동영상	-10.4816
식이	-10.4817
▁뭐임	-10.4824
▁시청자	-10.4824
광구	-10.4825
만하다	-10.4833
▁한다는	-10.4833
찾아	-10.4837
▁싫	-10.4838
▁보고나니	-10.4839
▁이야	-10.484
▁거장	-10.484
▁신의	-10.485
람	-10.4857
▁후에	-10.4858
▁갓	-10.4858
▁낳	-10.4859
▁없다고	-10.4859
▁요즘은	-10.4865
축	-10.4869
냈	-10.4869
주기	-10.4871
▁답이	-10.4871
▁믿기지	-10.4873
보긴	-10.4873
방식	-10.4875
▁내용의	-10.4876
아니고	-10.4878
소녀	-10.488
▁미스	-10.488
▁꼬마	-10.4885
혈	-10.4885
닷	-10.4887
。	-10.4887
▁둘째치고	-10.4887
▁말그대로	-10.489
▁하하	-10.4891
▁끝도	-10.4894
▁식상	-10.4895
감독은	-10.4906
▁것들이	-10.4908
▁가히	-10.4908
▁첨이다	-10.4912
▁절로	-10.4915
▁순수하고	-10.4916
▁무간도	-10.4919
점만점에	-10.492
▁신하균	-10.4924
하는영화	-10.4927
▁기대하지	-10.4928
▁아우	-10.4928
검	-10.493
▁여배우들	-10.4931
▁뛰어넘는	-10.4936
▁2012	-10.4936
이유	-10.4937
해진	-10.4937
▁잃은	-10.4939
▁이상하다	-10.4939
▁점수는	-10.494
▁생각해보게	-10.4945
몬	-10.495
▁짜증나게	-10.4951
야한다	-10.4951
▁씹	-10.4953
▁나와야	-10.4954
결국	-10.4955
▁절	-10.4957
▁언제까지	-10.4964
가슴	-10.4966
▁숨은	-10.4969
▁ᄒᄃᄃ	-10.4973
▁미국식	-10.4974
사실	-10.4976
겠네요	-10.4978
▁캐릭터를	-10.4979
▁시작해서	-10.4982
▁및	-10.4983
▁당연	-10.4984
▁매력적	-10.4984
▁자고	-10.4987
▁적당한	-10.4987
▁민폐	-10.4988
▁짜집기	-10.4989
▁s	-10.4998
▁케릭터	-10.4999
▁참나	-10.5001
만은	-10.5005
▁세번	-10.5008
나왔	-10.5009
천원	-10.501
▁과학	-10.5012
▁최고네요	-10.5012
▁역사에	-10.5012
11	-10.5014
했다면	-10.5019
▁같았다	-10.5021
받은	-10.503
▁됐다	-10.5033
▁감각	-10.5036
미친	-10.5038
겠음	-10.5039
▁아내	-10.504
▁표현할	-10.5042
시다	-10.5044
▁극장에	-10.5047
▁답답하다	-10.5048
▁연기력에	-10.5053
▁이거보다	-10.5055
▁보게된	-10.5059
▁워낙	-10.5059
▁칭찬	-10.5059
▁뭐하는	-10.506
▁향연	-10.506
▁낫겠다	-10.5061
▁재밌다는	-10.5061
▁좋겠습니다	-10.5062
▁마시길	-10.5063
▁엄청나게	-10.5064
▁했더니	-10.5065
▁사람들을	-10.5067
▁욕이	-10.5069
▁그들이	-10.5072
▁근래	-10.5073
▁멋지게	-10.5077
▁맡은	-10.508
▁비호감	-10.5082
지마	-10.5082
▁보겠다	-10.5083
▁재미있을	-10.5086
▁부활	-10.5093
애들은	-10.5094
▁ᄒᄒᄒᄒ	-10.5096
▁죽어	-10.5097
▁재미있었는데	-10.5103
▁전문	-10.5104
▁책임	-10.5105
▁있긴	-10.5105
▁역겹다	-10.5107
이런영화	-10.5108
▁감정이입	-10.5109
것처럼	-10.5118
틱	-10.5119
▁임창정	-10.5127
▁어디가	-10.5128
경찰	-10.513
▁빛	-10.5135
▁어디로	-10.5138
▁흑백	-10.5141
▁흘러가는	-10.5144
관객	-10.5145
▁끈	-10.515
▁따위	-10.5151
▁당신이	-10.5152
▁체	-10.5153
딩	-10.5153
보고나서	-10.5155
귀신	-10.5155
▁상어	-10.5157
하기만	-10.5158
▁쥐	-10.5159
마음	-10.5161
▁원하는	-10.5161
▁본인	-10.5164
자리	-10.5164
▁f	-10.5164
▁나올때	-10.5164
▁있었고	-10.5168
뭐냐	-10.5169
▁영상도	-10.5174
타고	-10.5175
or	-10.5176
▁박보영	-10.5177
▁내일	-10.5181
▁꼭보세요	-10.5181
최고다	-10.5183
▁것만	-10.5185
▁왔	-10.5194
치고는	-10.5199
생겼	-10.52
쓸	-10.5202
빙	-10.5208
▁뭐여	-10.521
▁시도는	-10.5224
▁고독	-10.5225
▁불쌍	-10.5233
▁뭐하자는	-10.5233
▁진짜로	-10.5233
▁왕조현	-10.5234
친다	-10.5235
▁그려낸	-10.5236
▁잠을	-10.5237
▁철저	-10.5238
▁형편없는	-10.5239
▁소통	-10.5241
초반	-10.5242
▁오글오글	-10.5243
▁싶어서	-10.5247
▁독특하고	-10.5247
▁디카프리오	-10.5247
▁있으나	-10.5247
정이	-10.5248
▁이럴	-10.5251
▁귀여워요	-10.5251
자고	-10.5252
▁스타워즈	-10.5252
▁캐스팅이	-10.5258
광고	-10.5258
▁스타뎀	-10.5263
▁힘을	-10.5265
였다면	-10.5266
▁이제는	-10.5266
▁뭐라고	-10.5268
뭘	-10.5275
지나	-10.528
포스터	-10.5286
▁느껴지지	-10.5287
▁소름끼치는	-10.5291
▁아이디어	-10.5293
▁아만다	-10.5297
▁도데체	-10.5299
▁다운받아서	-10.5299
▁어디에	-10.5308
봣	-10.5309
프로그램	-10.5312
▁충분한	-10.5314
▁응	-10.5316
▁똑같	-10.5317
▁어이없음	-10.532
▁더빙이	-10.5321
자를	-10.5322
▁논리	-10.5323
▁만들다	-10.5327
돌아	-10.5328
감동적	-10.5329
▁말투	-10.5334
억지	-10.5337
▁월	-10.5339
▁별로였다	-10.5339
겼	-10.5339
▁재밌게봤어요	-10.534
▁안맞	-10.5341
▁얼마	-10.5343
같은영화	-10.5343
놈들은	-10.5347
▁한번더	-10.535
▁실망이	-10.5351
있어요	-10.5353
톤	-10.5361
덕에	-10.5368
▁14	-10.5369
▁이별	-10.5373
▁오로	-10.5373
▁분장	-10.5378
▁말고는	-10.5378
▁사회적	-10.5378
▁안나오	-10.5378
▁막판	-10.5379
▁안나온다	-10.5381
닌	-10.5383
▁말인가	-10.5385
▁정도는	-10.5387
▁와닿	-10.539
▁잡아	-10.5395
잖아요	-10.5397
▁맞다	-10.5405
▁&	-10.5408
낀	-10.541
▁개봉당시	-10.5411
▁살아야	-10.5411
▁살렸다	-10.5413
▁시종일관	-10.5413
▁한효주	-10.5413
▁감명깊게	-10.5413
▁미스캐스팅	-10.5413
답니다	-10.5415
▁감동적이에요	-10.5416
쥐	-10.5416
▁연기하는	-10.5417
▁심한	-10.5418
영화도	-10.542
▁살아있는	-10.5424
것같네요	-10.5425
▁가짜	-10.5428
▁오글거리는	-10.5428
▁작화	-10.5429
▁여러모로	-10.5431
▁잼있네요	-10.5432
때부터	-10.5433
게하는	-10.5434
▁최고라고	-10.5435
▁뒤죽박죽	-10.5437
내는	-10.5438
▁기대가	-10.5438
▁알파치노	-10.5442
▁것인가	-10.5446
▁방해	-10.5447
▁말밖에	-10.5447
▁비쥬얼	-10.5452
▁속았다	-10.5455
▁다시금	-10.5457
몇	-10.5458
▁쉽지	-10.5459
▁완	-10.5463
▁든	-10.5464
▁미스터리	-10.5465
▁전편보다	-10.5467
▁타란티노	-10.5468
▁공유	-10.5474
번을	-10.5475
▁삶과	-10.5476
▁비슷	-10.5476
▁;	-10.5477
▁완벽하다	-10.5479
▁감독도	-10.5481
▁슬픈영화	-10.5482
겠어	-10.5482
▁돌아가	-10.5485
아버지	-10.5486
▁그런거	-10.5487
에비해	-10.5494
▁학생	-10.5495
인걸	-10.5495
빼곤	-10.5496
▁충분	-10.5497
판타지	-10.5497
TV	-10.5497
CG	-10.5498
▁하다니	-10.5499
바로	-10.5499
우리나라	-10.5499
그나마	-10.55
▁프랑스영화	-10.5503
▁아이들에게	-10.5504
그만	-10.5504
비추	-10.5507
▁용기	-10.551
지루하다	-10.5516
▁왔습니다	-10.5516
▁우는	-10.5518
▁떨	-10.5518
▁입장에서	-10.5522
▁언	-10.5524
▁떡	-10.5525
▁재미없네요	-10.5526
▁만들어라	-10.5527
있습니다	-10.5529
▁링	-10.5534
▁거리	-10.5536
▁하며	-10.5539
▁흔들	-10.5541
▁일본인	-10.5545
웃김	-10.555
것같	-10.5557
▁표현이	-10.5562
라는게	-10.5562
▁네티즌	-10.5564
▁정서	-10.5565
제로	-10.5565
▁만들었	-10.5572
살이	-10.5572
▁누나	-10.5573
▁만화영화	-10.5576
▁났다	-10.5576
층	-10.5579
같아서	-10.5586
▁보단	-10.5587
en	-10.5588
당한	-10.5593
▁고등학교	-10.5595
▁아마추어	-10.5595
▁바탕으로	-10.5595
▁픽사	-10.5596
스가	-10.5597
▁난해한	-10.5597
에게는	-10.5599
▁어쩌다	-10.5599
▁충분하다	-10.56
▁닥치고	-10.5601
성우	-10.5601
▁당장	-10.5604
▁글을	-10.5605
▁형제	-10.5607
▁모르겠네	-10.5609
여주인공	-10.561
▁우선	-10.5612
시키	-10.5612
삶	-10.5615
▁산만하고	-10.5616
▁오래전에	-10.5617
▁사랑스럽고	-10.5619
느냐	-10.562
▁억지스럽고	-10.5622
▁충격적인	-10.5622
닥	-10.5623
아라	-10.5624
▁쩔어	-10.5627
전혀	-10.5638
▁받았다	-10.5643
▁movie	-10.5645
▁코믹영화	-10.5648
택	-10.5649
▁달려	-10.5651
▁직업	-10.5651
감정	-10.5653
▁빠른	-10.5654
▁장난하나	-10.5656
▁혁명	-10.5656
▁넣어	-10.566
생활	-10.5663
▁보지마셈	-10.5667
스의	-10.5669
나름	-10.5671
▁긴장감을	-10.5672
주면	-10.5672
▁똑같이	-10.5678
▁라이언	-10.5683
▁스릴러물	-10.5688
▁하늘	-10.5689
각본	-10.5691
거에요	-10.5693
간에	-10.57
▁미소가	-10.57
▁보기가	-10.5706
▁리얼리티	-10.5707
▁우울	-10.5709
살때	-10.5711
▁어처구니	-10.5712
▁나음	-10.5713
▁역사상	-10.5715
▁세상에서	-10.5722
▁대부	-10.5722
▁인류	-10.5724
▁보아도	-10.5724
대고	-10.5725
쓰는	-10.5732
수는	-10.5735
▁선동	-10.5736
ᅮᅲ	-10.5736
▁두시간	-10.5744
킨	-10.5745
▁백인	-10.5746
▁낮은지	-10.5749
▁검색	-10.5753
듯하다	-10.5754
였구나	-10.5755
것인가	-10.5757
▁안보	-10.5758
엽	-10.5759
는거지	-10.5759
▁사람에게	-10.5759
▁땐	-10.5759
들에	-10.5761
▁이해도	-10.5763
▁안나오는	-10.5764
▁준비	-10.5765
▁끝을	-10.5768
▁올라가	-10.577
▁오는	-10.577
▁당황	-10.5772
▁검	-10.5773
▁뻔한스토리	-10.5775
▁캐릭터도	-10.5777
▁결	-10.5779
긋	-10.578
보네	-10.5783
▁풀어낸	-10.5783
▁바꿔	-10.5784
▁조낸	-10.5784
여배우	-10.5784
▁신고	-10.5785
더라도	-10.5794
▁할때	-10.5794
▁탓	-10.5795
▁영화인줄	-10.5797
▁나열	-10.5797
▁F	-10.58
▁에라이	-10.5801
▁심하다	-10.5803
▁죽인	-10.5804
▁조금만	-10.5808
▁갖다	-10.5813
▁좋으나	-10.5817
▁강동원	-10.5821
▁추천하고	-10.5824
▁정신이	-10.5825
▁좋아하지만	-10.5829
▁신인	-10.5829
▁계	-10.5835
거든	-10.5835
▁최악의영화	-10.5836
▁섬세한	-10.5837
▁후하게	-10.5837
▁울었어요	-10.5838
▁액션신	-10.584
물을	-10.5841
재밋다	-10.5844
▁잊을수	-10.5846
▁못하겠다	-10.5846
캐	-10.5847
있네요	-10.5848
▁지켜	-10.5851
▁주연배우	-10.5852
▁하도	-10.5853
▁아까워서	-10.5855
▁줄이야	-10.5855
▁이것보다	-10.5859
흠	-10.586
이었어요	-10.5865
바라	-10.5866
겟	-10.587
▁버려	-10.5871
M	-10.5876
▁미쳤	-10.5878
얼마나	-10.5878
▁찾기	-10.5883
관람	-10.5884
▁망치	-10.5887
▁당신의	-10.5888
웨이	-10.5888
▁아니었다	-10.5888
▁현실은	-10.589
▁무서움	-10.5897
▁나머지는	-10.5904
왔다	-10.5904
됬	-10.5906
수없는	-10.5907
할줄	-10.5911
▁했을까	-10.5913
▁에효	-10.5913
▁한가지	-10.5914
▁건가	-10.5915
▁깎	-10.5915
▁가능	-10.5916
만큼이나	-10.5916
▁진지	-10.5916
▁코드	-10.5917
!!!!!!	-10.5918
모르고	-10.5918
효과	-10.592
▁아무튼	-10.5921
붙	-10.5922
▁순수함	-10.5927
▁겨울	-10.5927
▁is	-10.5929
▁불편	-10.593
▁다른영화	-10.593
50	-10.5931
ost	-10.594
점이나	-10.5941
▁고뇌	-10.5943
▁관심이	-10.5944
▁보고있는데	-10.5945
어디	-10.5946
당시	-10.5948
오브	-10.5953
▁때려	-10.5955
▁뻔하다	-10.5958
릭	-10.5963
픽	-10.5966
오랫동안	-10.5969
▁두고두고	-10.5969
<	-10.597
▁전개는	-10.5971
▁쉬운	-10.5971
알아	-10.5974
▁고문	-10.5976
배우들이	-10.5976
▁우린	-10.598
▁새벽	-10.5981
▁마찬가지	-10.5983
없나	-10.5985
▁행복하게	-10.5993
▁사용	-10.5993
▁떡밥	-10.5994
▁살리지	-10.5995
▁묘한	-10.5998
데요	-10.6001
▁세월이	-10.6001
▁무섭게	-10.6002
▁다르	-10.6002
▁클래식	-10.6005
웠다	-10.6012
▁비록	-10.6015
불쌍	-10.6018
▁사랑하고	-10.6022
▁한심하다	-10.6025
▁영화라서	-10.6026
▁길이	-10.6027
▁ᄌᄂ	-10.6027
▁레옹	-10.6027
▁남는게	-10.6031
▁끌고	-10.6032
▁말씀	-10.6034
재미있어요	-10.6035
역사	-10.6037
▁넘어서	-10.6038
▁매번	-10.6038
▁잔인함	-10.6041
▁P	-10.6044
못함	-10.6049
묘	-10.605
▁소장	-10.6051
됩니다	-10.6051
하고싶다	-10.6051
▁양아치	-10.6054
▁누	-10.6062
▁모자라	-10.6067
▁웃었다	-10.6067
▁아파	-10.6069
▁자리	-10.6069
벨	-10.6071
앤	-10.6073
어용	-10.6074
로맨스	-10.6075
하군	-10.6077
기로	-10.6077
허무	-10.608
▁낙	-10.6084
인게	-10.6085
▁조선	-10.6085
이후로	-10.6085
▁설레	-10.6091
▁신이	-10.6092
▁정리	-10.6093
아들	-10.6093
▁잼없다	-10.6094
▁강간	-10.6098
제일	-10.6101
갈수록	-10.6101
▁구성도	-10.6103
지도않고	-10.6103
것보다	-10.6104
▁심장	-10.6109
▁드라마로	-10.611
▁천사	-10.6111
▁드라마에	-10.6116
▁만드네	-10.6117
볼만	-10.6122
▁포스	-10.6122
끌	-10.6124
▁유럽	-10.6124
답다	-10.6125
▁서양	-10.6132
▁의도는	-10.6137
였을	-10.6139
▁바닥	-10.614
▁필요가	-10.6141
▁티비로	-10.6145
재미있게	-10.6145
▁소름돋	-10.6146
좌	-10.6146
지지	-10.6152
▁했으나	-10.6156
점으로	-10.6158
▁4.44	-10.6161
▁감성팔이	-10.6161
▁온갖	-10.6161
잼있	-10.6163
▁아이유	-10.6163
▁재앙	-10.6163
▁괜찮았던	-10.6164
▁호기심	-10.6164
▁자연스럽게	-10.6165
시키고	-10.6167
▁이만한	-10.6167
▁찌	-10.6168
▁지옥	-10.6168
▁조카	-10.6168
▁마냥	-10.6169
▁개꿀잼	-10.6171
▁눈으로	-10.6173
▁마지막회	-10.6175
▁친구들	-10.6176
▁부산	-10.6176
▁부모님	-10.618
▁커서	-10.618
▁했는지	-10.618
지않아	-10.6181
▁액션씬	-10.6181
▁성룡의	-10.6182
▁괜찮네요	-10.6182
▁딸이	-10.6183
▁흘러	-10.6186
▁잔잔함	-10.6187
▁m	-10.6188
무섭	-10.619
재밌고	-10.6193
▁수록	-10.6194
▁영화라지만	-10.6195
▁침	-10.6196
서도	-10.6199
둥	-10.6199
▁원작과	-10.6201
▁버린	-10.6202
▁조잡한	-10.6205
▁이거보단	-10.6213
제작	-10.6213
려나	-10.6216
▁관객이	-10.6219
▁공주	-10.6219
않고	-10.622
부리	-10.6222
맘	-10.6224
▁스파이더맨	-10.6226
나올	-10.6228
▁줘야	-10.623
★	-10.6231
▁만든거	-10.6232
서야	-10.6236
하니까	-10.6237
이랄까	-10.6238
▁의지	-10.6239
는구나	-10.6242
▁보게되는	-10.6242
▁아쉬워요	-10.6243
▁인생영화	-10.6248
새끼들	-10.6249
▁하기엔	-10.625
폭	-10.6253
▁재미없을	-10.6254
▁재미있었	-10.6255
▁싶습니다	-10.6257
평가	-10.6261
선택	-10.6269
▁재방	-10.627
▁벤	-10.627
▁여신	-10.6273
덕분에	-10.6274
결혼	-10.6275
▁아니라면	-10.6277
▁드림	-10.6278
...(	-10.628
▁일을	-10.628
만들어도	-10.628
▁비교해	-10.6282
▁평을	-10.6287
보여	-10.6288
류의	-10.6288
충격	-10.6292
▁나왔던	-10.6292
하나하나가	-10.6292
할수가	-10.6293
못한	-10.6295
져요	-10.6298
는대	-10.6298
▁별점이	-10.6301
▁영화보다가	-10.6301
▁러브	-10.6301
▁장점	-10.6302
안하고	-10.6306
할수있	-10.6307
▁이영화의	-10.631
^^*	-10.6316
▁공포가	-10.6318
▁중년	-10.6326
▁널	-10.6326
▁아동	-10.633
중에서	-10.6334
았던	-10.6336
▁상황이	-10.6336
▁의미도	-10.6339
▁액션만	-10.6341
▁버렸다	-10.6343
▁빠지는	-10.6344
▁대학	-10.6345
▁벗	-10.6348
춘	-10.6351
▁봉	-10.6351
▁잼있는	-10.6353
▁들어서	-10.6356
▁껐다	-10.6357
▁점수준것들	-10.6357
▁안타까움	-10.6357
▁로빈	-10.6359
▁태국	-10.636
▁웃음을	-10.636
▁짱이다	-10.6363
▁하세요	-10.6366
▁낚인	-10.6366
▁감동적입니다	-10.6367
ᅮᅮᅮ	-10.6368
▁스포츠	-10.6369
▁구분	-10.6369
▁기발한	-10.637
▁그랬	-10.6374
빠져	-10.6375
▁별로네요	-10.6376
▁느껴졌다	-10.6378
사를	-10.6378
▁실망이다	-10.6379
▁화장실	-10.6379
▁상징	-10.6379
▁우연	-10.6379
▁한동안	-10.6381
▁애초에	-10.6383
▁높이	-10.6386
▁피아노	-10.6389
▁필요한가	-10.639
▁보았	-10.6393
더군	-10.6393
분짜리	-10.6394
▁로맨틱코미디	-10.6397
com	-10.6403
▁외국인	-10.641
▁제작비가	-10.6412
▁멋져	-10.6413
안된다	-10.6413
흔	-10.6415
역할	-10.6417
보이는	-10.6417
▁웃겼다	-10.6422
님들	-10.6424
든지	-10.6431
▁빨갱이	-10.6433
그런데	-10.6434
▁최대	-10.6435
▁제목에	-10.6437
▁느끼고	-10.6437
▁부정	-10.6437
고요	-10.6438
결말이	-10.6441
았음	-10.6442
▁배우분들	-10.6442
▁짜리	-10.6444
▁듣는	-10.6447
▁지루함을	-10.6448
했었는데	-10.645
▁끊	-10.6454
나가는	-10.6457
▁민족	-10.6458
흑	-10.6458
하기엔	-10.6467
같지	-10.6467
P	-10.647
쏘	-10.6472
ᄇ	-10.6472
▁여자를	-10.6473
▁공간	-10.6473
셀	-10.6473
것들이	-10.6476
▁생긴	-10.6476
비가	-10.6477
▁걱정	-10.6477
쩝	-10.6477
▁실수	-10.648
▁알려주는	-10.6482
▁유발	-10.6485
애니메이션	-10.6489
올리	-10.6494
▁하이틴	-10.6497
랬	-10.6497
▁말아야	-10.6498
너무나	-10.6498
▁때문	-10.6499
▁신화	-10.6502
보던	-10.6504
모르	-10.6504
남주	-10.6509
▁맞나	-10.6512
▁높지	-10.6514
▁열라	-10.6518
▁시청자들	-10.6518
▁있었음	-10.6519
▁맞추	-10.6519
▁H	-10.6519
▁오해	-10.6521
보소	-10.6526
▁니가	-10.6526
▁했습니다	-10.6527
당시엔	-10.6532
▁통쾌	-10.6533
^^;	-10.6536
▁것들	-10.6546
▁반영	-10.6546
솔	-10.6547
▁내돈	-10.6548
룩	-10.6553
▁해야지	-10.6554
▁절망	-10.6555
▁뒤늦게	-10.6557
▁오그라드는	-10.6557
▁자연스러운	-10.656
▁고증	-10.6561
▁옥	-10.6561
▁가족을	-10.6563
▁재밌었습니다	-10.6564
보지말	-10.6568
▁해준다	-10.6571
▁들어간	-10.6573
개는	-10.6573
나올때	-10.6574
▁착	-10.6574
▁처음본다	-10.6576
▁밋밋한	-10.658
▁부인	-10.6581
▁보는것	-10.6582
▁바란다	-10.6583
▁데이빗	-10.6583
▁나오기	-10.6584
놀이	-10.6585
▁화끈한	-10.6586
▁역작	-10.6586
▁남자들	-10.6588
▁몰입도도	-10.6589
뭐지	-10.6592
▁기억나	-10.6592
▁있냐	-10.6593
▁타임	-10.6593
▁김수현	-10.6604
▁니들이	-10.6604
▁의미있는	-10.6607
▁전성기	-10.6607
▁재미잇	-10.6608
▁부족하고	-10.6614
▁바라는	-10.6617
▁또라이	-10.6618
▁수면제	-10.6619
학년때	-10.6623
▁이상해	-10.6624
꿈	-10.6624
라지만	-10.6626
▁쪽	-10.6628
식으로	-10.663
▁커버	-10.6636
40	-10.6636
~~~~~	-10.6643
▁도시	-10.6644
▁영화와	-10.6647
▁보고싶은데	-10.6649
...^^	-10.6654
해주고	-10.6655
▁멋짐	-10.6661
▁음악은	-10.6664
찡	-10.6665
▁글고	-10.6666
후에	-10.6667
▁관점	-10.6668
둔	-10.6668
▁떼	-10.6669
▁빠져들게	-10.6669
▁앞에서	-10.667
몸	-10.6671
분정도	-10.6671
▁V	-10.6671
화가	-10.6674
만을	-10.6675
▁모든것이	-10.6678
▁느낀다	-10.6678
맥	-10.6678
콩	-10.6681
▁의해	-10.6682
포인트	-10.6683
▁볼것	-10.6684
▁절대로	-10.6685
▁아무나	-10.6686
▁볼수있	-10.6689
▁전투	-10.6692
▁멋있고	-10.6692
듬	-10.6693
재밋음	-10.6695
▁여기에	-10.6695
▁안본	-10.6696
▁영상은	-10.6698
▁염	-10.67
▁남자는	-10.6704
되네요	-10.6706
▁기다리	-10.6708
▁넣	-10.671
들끼리	-10.6713
간만에	-10.6714
▁ᄉ	-10.6715
▁안나옴	-10.6717
▁스토리전개	-10.6718
하겠습니다	-10.6724
▁되서	-10.6725
▁안보면	-10.6727
▁공포는	-10.673
여자가	-10.6734
▁겁	-10.6742
▁족	-10.6743
ᄏᄏᄏᄏᄏᄏ	-10.6744
▁끝났	-10.6749
▁과정이	-10.6752
▁얘기를	-10.6759
▁대박이다	-10.6761
▁봤고	-10.6761
▁세련된	-10.6761
▁짬뽕	-10.6761
▁크레딧	-10.6761
푼	-10.6761
▁늙은	-10.6762
▁아니잖아	-10.6764
▁안감	-10.6764
▁낚	-10.6765
▁마블	-10.6765
▁억지스런	-10.6766
▁복선	-10.6766
뭐야	-10.6767
▁모방	-10.6775
▁언어	-10.6775
▁주온	-10.6775
▁의문이	-10.6776
▁bad	-10.6776
▁않습니다	-10.6776
▁후반부에	-10.6777
▁스페인	-10.6782
▁칠	-10.6784
▁편하게	-10.6787
▁현실적이고	-10.6787
▁최고에요	-10.6787
누구	-10.6789
▁짱구	-10.6791
▁있겠지만	-10.6792
▁웃겨서	-10.6794
에휴	-10.6795
당신	-10.6806
▁한석규	-10.6806
▁완젼	-10.6806
아까운	-10.6807
▁L	-10.6807
▁한다고	-10.681
▁엄정화	-10.6812
▁케빈	-10.6813
▁안될	-10.6813
르고	-10.6816
어지는	-10.6817
▁제대로된	-10.6817
▁거품	-10.6818
▁느껴질	-10.682
▁미스테리	-10.6824
씬이	-10.6826
▁정체성	-10.6828
▁답답해	-10.6831
▁상업영화	-10.6833
▁킬러	-10.6833
턴	-10.6835
▁발상	-10.6835
▁사이코	-10.6835
못보겠	-10.6835
수작	-10.6836
엇는데	-10.6839
거라고	-10.6841
▁대사도	-10.6843
▁당연한	-10.6854
▁낮네요	-10.6854
▁감독에게	-10.6855
▁꿈과	-10.6857
▁안가는	-10.6859
▁독특	-10.686
▁ᄌ	-10.6861
▁신비	-10.6862
끄	-10.6863
▁빅	-10.6864
혹	-10.6865
▁무협영화	-10.6866
▁형편없	-10.6875
구먼	-10.6877
▁새끼	-10.6879
▁본능	-10.6883
▁;;;	-10.6885
▁받아야	-10.6887
흥	-10.6889
빛	-10.6892
적은	-10.6893
탓	-10.6894
구역	-10.6895
마저도	-10.6895
▁센스	-10.6896
▁설정은	-10.6897
셈	-10.6898
▁두명	-10.6903
▁관련	-10.6903
감을	-10.6904
▁흥분	-10.6916
▁가족과	-10.6918
▁일본에서	-10.692
가면서	-10.6922
▁만들기	-10.6926
▁아이를	-10.6927
▁슬퍼	-10.6927
▁재능	-10.6928
없는영화	-10.6935
픈	-10.6935
줘야지	-10.6938
▁끝날	-10.6943
▁재밌지	-10.6945
▁약한	-10.6947
▁이영화에	-10.6948
▁와서	-10.6949
▁진부하다	-10.6949
쳐서	-10.6951
▁흑	-10.6958
▁드라마다	-10.6959
▁어째	-10.6961
협	-10.6962
폰	-10.6966
▁여태	-10.6968
냄	-10.6969
▁기획	-10.6969
▁설경구	-10.6969
▁호불호가	-10.6969
▁원피스	-10.697
▁주인공들이	-10.697
▁드니로	-10.697
▁그냥저냥	-10.697
▁생존	-10.6971
▁보낸다	-10.6971
▁복잡	-10.6971
▁거짓	-10.6972
▁시골	-10.6973
았지만	-10.6975
▁p	-10.6976
▁슈	-10.6976
▁극본	-10.6977
▁제작자	-10.6978
▁미학	-10.6978
▁쓰러	-10.698
▁시체	-10.698
▁감정선	-10.698
▁개인적인	-10.6981
좋았	-10.6982
떨어	-10.6982
▁멋져요	-10.6983
곳	-10.6986
▁기대된다	-10.6986
거니	-10.6986
▁빠져들	-10.6986
긴다	-10.6994
▁전개에	-10.6994
▁이런식으로	-10.6997
▁않아요	-10.7003
▁남아있는	-10.7006
▁후속편	-10.7007
바른	-10.7012
▁하자	-10.7015
▁애니매이션	-10.7015
▁나루토	-10.7015
넣	-10.7016
할정도로	-10.7017
on	-10.702
놈은	-10.7021
▁초반엔	-10.7022
▁진행되는	-10.7026
회부터	-10.703
즘	-10.7031
▁상처를	-10.7032
▁하품	-10.7034
▁파리	-10.7035
▁첨으로	-10.7037
▁말이필요없다	-10.7041
기도하고	-10.7041
▁가장한	-10.7041
▁의한	-10.7044
▁점이	-10.7044
▁아침	-10.7049
st	-10.7052
▁일주일	-10.7053
▁잊	-10.7055
▁만들었으면	-10.7055
육	-10.7057
▁걸까	-10.7059
▁싶었	-10.7066
▁간지	-10.7067
▁사람과	-10.7067
고싶은	-10.7068
▁개성	-10.707
하셨	-10.7075
▁되었습니다	-10.7078
▁깔	-10.7082
▁나오네요	-10.7082
▁17	-10.7089
G	-10.7101
▁스포	-10.7106
촌	-10.7109
▁살리	-10.7109
▁벽	-10.7111
▁스토리로	-10.7112
털	-10.7113
▁이해할수	-10.7114
칼	-10.7116
암튼	-10.7117
갑자기	-10.7117
▁회사	-10.7118
▁예고	-10.7126
몰입	-10.7127
▁이하도	-10.7128
▁16	-10.7129
▁액션물	-10.713
▁무겁	-10.7133
▁정부	-10.7133
꺼야	-10.7133
▁직	-10.7136
▁적은	-10.7137
▁영화인것	-10.714
▁전율이	-10.7142
하겠	-10.7143
▁웃을	-10.7143
▁봐야한다	-10.7143
▁욕을	-10.7147
텐	-10.7148
▁구조	-10.7149
▁헛	-10.7153
▁만화책	-10.7155
▁넘넘	-10.7161
▁긴장감과	-10.7161
▁연주	-10.7162
▁배신	-10.7164
▁감성을	-10.7166
▁멜로영화	-10.7169
▁킬링	-10.7174
▁한시간	-10.7175
▁따름	-10.7175
▁이어지는	-10.7176
▁살다	-10.7176
▁아련	-10.7178
▁주세요	-10.7179
살인	-10.718
▁취향이	-10.718
▁늑대	-10.718
▁범죄자	-10.718
80	-10.7181
▁봤나	-10.7182
▁흥미롭게	-10.7182
▁2.22	-10.7184
▁색감	-10.7184
▁새삼	-10.7185
표정	-10.7186
▁도둑	-10.7186
같은데	-10.7187
▁심각하게	-10.7187
것같아	-10.7188
있었	-10.7191
▁없던	-10.7192
▁동화같은	-10.7196
▁아이언맨	-10.7198
▁히어로물	-10.7199
대를	-10.7202
▁감동적이었다	-10.7204
▁걸로	-10.7204
▁박찬욱	-10.7204
▁영웅본색	-10.7204
▁귀여워서	-10.7204
이기에	-10.7207
▁떨어지	-10.721
상영	-10.7212
점주기도	-10.7217
기영화	-10.7218
▁안되네	-10.7221
▁몰라	-10.7221
것같음	-10.7222
▁광기	-10.7228
▁김희선	-10.7229
▁테이큰	-10.7229
▁우리에게	-10.723
▁러닝타임이	-10.7231
답답	-10.7231
▁허구	-10.7232
▁머야	-10.7233
▁할말	-10.7235
야할	-10.7238
▁점에서	-10.724
▁보여줄	-10.7243
받을	-10.7243
▁걸작이다	-10.7243
▁아버지가	-10.7247
치기	-10.7247
있으면	-10.7247
▁브	-10.7249
▁모습에	-10.7249
▁김치	-10.7249
ᄃᄃᄃ	-10.7255
우스	-10.7262
게다가	-10.7264
최악의	-10.7264
▁들게	-10.7265
▁완성도가	-10.7266
▁강추합니다	-10.727
▁반감	-10.727
▁졸잼	-10.7272
▁말았다	-10.7273
▁못했던	-10.7275
▁만들었냐	-10.7277
▁돋	-10.7282
▁대역	-10.7282
▁그림체	-10.7283
▁명배우	-10.7288
▁다시봤는데	-10.7289
▁보아	-10.729
▁이렇게까지	-10.729
▁평화	-10.7295
▁않았	-10.7297
▁듣기	-10.7299
▁보구	-10.7301
▁연습	-10.7302
꽃	-10.7306
▁팬들	-10.7306
▁다름	-10.7307
▁싶다면	-10.7308
▁여자들이	-10.7308
▁생각만	-10.7313
▁싶음	-10.7315
었네요	-10.7315
▁특이	-10.7319
돈이	-10.732
않음	-10.7324
▁스토리나	-10.7327
▁머냐	-10.7327
요소	-10.7327
레스	-10.7328
▁이딴게	-10.7331
▁궁	-10.7332
▁꿀	-10.7332
▁영상미도	-10.7332
▁편인데	-10.7333
▁알려	-10.7334
▁가져	-10.7335
▁놈들	-10.7337
봣다	-10.7338
이어	-10.734
▁앞뒤	-10.7343
▁감이	-10.7345
▁죽음을	-10.7346
▁잔인	-10.7347
었지	-10.7347
▁컨셉	-10.7348
▁좋더라	-10.7349
▁이기	-10.7349
▁케	-10.7349
▁주고싶다	-10.7349
▁그대	-10.735
오랜만에	-10.7352
▁음악을	-10.7357
▁잼나	-10.7359
▁대결	-10.7359
▁왔는데	-10.7359
호러	-10.7363
아닌데	-10.7364
:)	-10.7364
한국영화	-10.7364
▁알지	-10.7365
▁연기만	-10.7368
예술	-10.7371
▁허나	-10.7371
▁세월	-10.7373
시기	-10.7374
지루해	-10.7375
▁참여	-10.7377
▁노인	-10.738
▁집중도	-10.7381
▁들지	-10.7382
▁오글	-10.7382
분들께	-10.7386
▁고어	-10.7388
▁로망	-10.7394
됫	-10.7394
▁락	-10.7394
▁너무하네	-10.7396
컨	-10.7399
▁유행	-10.7399
▁군더더기	-10.74
▁송승헌	-10.74
▁오페라	-10.74
▁외로움	-10.74
▁왕가위	-10.74
점준것중	-10.74
▁예측	-10.74
명성에	-10.7401
▁웃으며	-10.7402
많고	-10.7402
▁소품	-10.7404
랜드	-10.7407
ᄏᄏᄏᄏᄏᄏᄏ	-10.7408
▁어설프게	-10.7411
보기엔	-10.7411
본거	-10.7415
▁되면	-10.742
▁등장인물들	-10.7421
▁원조	-10.7421
줘요	-10.7421
▁손예진	-10.7422
▁결국엔	-10.7427
▁갖게	-10.7428
▁동감	-10.7429
▁시험	-10.7429
▁허허	-10.7429
함에	-10.743
▁막상	-10.7436
▁웃다가	-10.7436
▁북	-10.7437
거같아	-10.7442
▁엔딩은	-10.7443
▁재탕	-10.745
▁같지	-10.7451
bb	-10.7451
▁인식	-10.7452
▁권상우	-10.7454
▁어차피	-10.7454
▁슈퍼맨	-10.7455
▁제시카	-10.7455
알고	-10.7456
▁전라도	-10.7459
▁자위	-10.7462
▁힘들었다	-10.7463
▁우승	-10.7464
▁지금보면	-10.7465
▁허접하고	-10.7467
▁면에서	-10.7469
............	-10.7471
▁보이고	-10.7473
▁잊지못할	-10.7474
▁면이	-10.7474
▁나올까	-10.7475
여운	-10.7476
점대가	-10.7476
▁아깝습니다	-10.748
▁민망	-10.7484
역을	-10.7484
▁권력	-10.7486
▁버리	-10.7488
▁지루하	-10.7489
이리	-10.7491
많은것을	-10.7491
믿고	-10.7492
않다	-10.7493
트리	-10.7493
하지말고	-10.7494
어라	-10.7494
▁우울한	-10.7495
싶은	-10.7498
으로만	-10.7499
아까움	-10.7502
있다면	-10.7504
줄이야	-10.7504
▁만드냐	-10.7504
하기에는	-10.7506
▁ᄏᄏᄏᄏᄏᄏᄏᄏᄏ	-10.751
▁돈아까워	-10.7513
▁공연	-10.7517
하겠지만	-10.7517
적이다	-10.7518
▁매주	-10.752
▁경우	-10.7523
자기	-10.7525
얻	-10.7526
하길래	-10.7526
하시길	-10.7528
짜리	-10.7529
▁남기는	-10.7529
▁필요하다	-10.7532
하러	-10.7532
드만	-10.7536
▁ᄡ	-10.7538
▁대사와	-10.754
눈물이	-10.7541
▁이야기의	-10.7542
영화라	-10.7542
▁명작임	-10.7545
▁마니	-10.7546
주지	-10.7547
▁비해서	-10.755
▁많네	-10.7551
▁완성	-10.7551
▁진실을	-10.7555
하기에	-10.7557
▁무엇이	-10.7558
▁기회	-10.7559
앞에서	-10.7559
▁곳	-10.756
▁영화였는데	-10.756
▁잡는	-10.7563
탑	-10.7564
춤	-10.7564
▁감성이	-10.7565
둥이	-10.7565
▁영화야	-10.7567
할것	-10.7567
볼때마다	-10.757
▁휘	-10.7571
▁미녀	-10.7573
▁싫은	-10.7574
▁두개	-10.7574
힘들	-10.7578
▁느껴	-10.7579
▁흥미진진한	-10.7582
▁십점	-10.7582
분도	-10.7584
보러	-10.7584
▁위로	-10.7586
▁기사	-10.7587
▁포인트	-10.7591
조차도	-10.7594
▁불안	-10.7595
▁욕먹	-10.7595
▁현실에	-10.7598
▁안봄	-10.7603
▁본건	-10.7604
화면	-10.7604
▁이딴거	-10.7607
어른	-10.7607
▁박수	-10.7607
ed	-10.7609
좋겠다	-10.7609
이즈	-10.7609
났음	-10.7611
▁말은	-10.7612
▁극혐	-10.7614
퇴	-10.7615
▁싫어하는	-10.7617
▁내용전개	-10.7619
닉	-10.7622
▁가볍지	-10.7622
▁스필버그	-10.7622
▁컬트	-10.7622
▁챙겨	-10.7625
편과	-10.7627
▁과장된	-10.7628
▁일찍	-10.7629
▁기억난다	-10.7629
연기를	-10.7629
▁정석	-10.7632
▁예뻐서	-10.7632
▁오직	-10.7632
▁오지	-10.7634
하였다	-10.7638
주시	-10.7639
▁불쌍해서	-10.7643
▁번역	-10.7643
사람들의	-10.7643
▁줄수	-10.7644
제가	-10.7644
▁경계	-10.7646
▁x	-10.7647
줄거리	-10.7647
▁채워	-10.7649
▁아바타	-10.7651
▁연기로	-10.7652
짱짱	-10.7652
점주	-10.7654
▁추억을	-10.7655
▁나머진	-10.7658
▁부분에서	-10.7658
▁재밋고	-10.7659
▁최고인듯	-10.7661
▁찍지	-10.7666
▁로마	-10.7666
▁옆에	-10.7668
입니까	-10.7669
▁하나는	-10.7671
▁알바가	-10.7671
▁봐줄만	-10.7676
미화	-10.7681
어여	-10.7683
▁보지도	-10.7684
정도는	-10.7684
자들이	-10.7685
▁표정이	-10.7685
로운	-10.7687
▁음향	-10.7688
▁치료	-10.7689
▁후반부로	-10.7692
▁향한	-10.7692
미가	-10.7695
재밌는	-10.7696
▁청년	-10.7696
▁중독	-10.7696
▁사람만	-10.7697
▁멋지	-10.7698
▁돌아보게	-10.77
▁영상미와	-10.7702
▁오글거림	-10.7704
▁가까이	-10.7704
▁공룡	-10.7705
▁다리	-10.7706
▁싶었는데	-10.771
이래	-10.7711
▁메세지를	-10.7711
▁실상	-10.7712
없네요	-10.7715
▁신선함	-10.7715
남기	-10.7716
▁차승원	-10.7717
▁귀신이	-10.7717
올라	-10.7718
▁설명이	-10.7718
▁떨어져	-10.7721
▁성형	-10.7721
▁그리워	-10.7723
나보다	-10.7724
▁시대적	-10.7724
것에	-10.7725
▁시기	-10.7725
▁모르겠	-10.7726
▁났	-10.7727
▁무기	-10.7729
▁여운도	-10.7729
▁커녕	-10.773
별점	-10.7733
큐	-10.7733
▁캐스팅은	-10.7734
▁드라마중	-10.7736
▁스릴감	-10.7741
흥미를	-10.7743
.,.,	-10.7746
아오	-10.7749
><	-10.7749
그저	-10.7753
끝나고	-10.7759
생각을	-10.7759
이구나	-10.7762
▁소재만	-10.7763
흘	-10.7773
▁킬링타임용으로도	-10.7773
▁내리	-10.7774
▁입장	-10.7776
▁즐기	-10.7776
▁바라보는	-10.7776
보네요	-10.7786
럼	-10.7786
▁영혼	-10.7787
납니다	-10.779
굴	-10.779
기전에	-10.7791
재미없어	-10.7792
▁어렵	-10.7793
▁찍었	-10.7794
홀	-10.7794
벗	-10.7795
▁인물들의	-10.7798
옛날	-10.78
됐다	-10.7803
었나	-10.7805
▁쥬	-10.7809
▁즐겨	-10.7811
▁최악임	-10.7813
▁이것은	-10.7816
▁봤지	-10.7819
▁못본	-10.7819
▁잘하네요	-10.7819
과정	-10.782
볼때	-10.7826
▁소름끼치	-10.7833
지말자	-10.7837
▁초반에는	-10.7839
올려	-10.7839
덩어리	-10.784
▁승부	-10.784
원래	-10.784
객	-10.7841
▁저평가	-10.7843
줬다	-10.7845
▁본듯한	-10.7848
▁세대	-10.7848
덩	-10.7849
룰	-10.7849
▁봤는지	-10.7849
▁섞어	-10.7849
▁소피마르소	-10.7849
▁학창시절	-10.7849
졋	-10.7849
▁간간히	-10.785
보임	-10.785
▁결국은	-10.7853
▁의견	-10.7854
▁헬	-10.7854
하려면	-10.7855
▁흥미롭지	-10.7855
▁썼	-10.7856
기에는	-10.7859
▁거기서	-10.7862
▁O	-10.7865
▁기법	-10.7865
▁이전	-10.7867
▁처음이네	-10.7867
▁이은주	-10.7869
▁감동적임	-10.7869
▁인간적으로	-10.787
▁약하다	-10.787
▁김명민	-10.7873
▁싸이코패스	-10.7873
▁엉망진창	-10.7873
▁총체적	-10.7873
감상	-10.7873
▁손색이	-10.7873
▁굿굿굿	-10.7877
몰입도	-10.7878
▁빈약한	-10.7878
▁구혜선	-10.7879
▁다이하드	-10.7879
▁어디까지	-10.788
▁느	-10.7881
▁영향을	-10.7882
▁훈훈하고	-10.7883
▁에로물	-10.7884
▁최민수	-10.7886
사의	-10.7888
▁욕나온다	-10.7888
걸작	-10.7888
인들	-10.789
조연	-10.7892
▁겨울왕국	-10.7893
▁만든건지	-10.7895
2005	-10.7895
▁빠질	-10.7896
을수	-10.7901
▁시간과	-10.7902
▁나고	-10.7903
▁니콜	-10.7906
봐야지	-10.7906
▁좋아했던	-10.7907
어떤	-10.7908
▁커피	-10.7908
곳이	-10.791
▁이따위로	-10.7912
▁25	-10.7913
▁목적	-10.7916
▁스파이	-10.7917
▁영화같다	-10.7918
▁아련한	-10.7918
▁육	-10.7919
▁시리즈가	-10.7921
▁한개	-10.7926
▁가져다	-10.7927
▁몰입하게	-10.7928
▁있었습니다	-10.7936
대의	-10.7939
그대로	-10.794
▁끝남	-10.7942
▁생기	-10.7942
빠르	-10.7944
학교	-10.7947
▁개그맨	-10.7948
▁헉	-10.7953
졌음	-10.7955
▁남의	-10.7955
▁의도를	-10.7955
▁담고	-10.7959
▁노래는	-10.7961
.............	-10.7962
레기	-10.7967
▁따라가	-10.7969
대체	-10.797
▁했어요	-10.797
▁대사들	-10.7971
▁감동입니다	-10.7972
▁없어도	-10.7975
▁크다	-10.7977
▁유치찬란	-10.7981
▁아이고	-10.7984
▁역량	-10.7986
▁여주인공의	-10.7988
빌	-10.7988
▁쿠	-10.7988
▁인권	-10.7988
▁심장이	-10.7991
는것을	-10.7992
▁쿨	-10.7992
▁여자애	-10.7993
동화	-10.7994
까봐	-10.7994
쩐다	-10.7995
싫다	-10.7998
▁ᅲᅮ	-10.8003
▁어린아이	-10.8005
여기	-10.8009
▁줘	-10.8011
▁줬	-10.8012
▁하하하	-10.8014
▁어른들	-10.8014
▁캐릭	-10.8015
▁빠졌	-10.8017
▁살인자	-10.8017
것만으로도	-10.8018
▁밑	-10.802
▁하기	-10.802
헌	-10.8021
▁기다려	-10.8022
very	-10.8023
않은	-10.8024
▁군인	-10.8025
뒤에	-10.8026
탁	-10.8026
괜찮	-10.8027
끝내	-10.8029
수준이	-10.8031
섬	-10.8032
K	-10.8034
▁완벽하	-10.8036
▁키스	-10.8036
내리	-10.8037
아름다운	-10.8037
▁불쾌	-10.8048
▁이런것도	-10.8049
▁식상하다	-10.8049
▁한국어	-10.8054
▁갔다	-10.8055
▁알게된	-10.8055
되나	-10.8056
돋	-10.8063
▁결정	-10.8064
▁하나가	-10.8066
▁지가	-10.807
엠	-10.807
▁어이없	-10.8075
▁익	-10.8075
▁예수	-10.8076
낭	-10.8077
▁시대가	-10.8077
▁등장하는	-10.8078
▁되야	-10.8078
▁애니를	-10.8079
랭	-10.808
▁나올수	-10.808
▁웬만하면	-10.8082
☆	-10.8082
▁나면	-10.8082
▁관람객	-10.8082
▁람보	-10.8083
▁될듯	-10.8083
▁진부	-10.8084
▁재방송	-10.8087
▁중반부터	-10.809
▁중학교	-10.8091
▁고작	-10.8092
▁저리	-10.8093
▁좋아하지	-10.8095
버전	-10.8095
▁여유	-10.8096
-.-	-10.8097
▁이기적인	-10.8098
▁신경쓰	-10.8098
봤을땐	-10.8105
낮은	-10.8107
▁없애	-10.8107
▁OOOO	-10.811
같은거	-10.8111
듣고	-10.8112
▁강아지	-10.8113
노출	-10.8113
▁역사적	-10.8114
▁미친듯이	-10.8115
▁재밋네요	-10.8116
▁회상	-10.8117
드리	-10.8118
중국	-10.8119
편부터	-10.8121
▁와닿지	-10.8123
▁2015	-10.8123
▁감동이다	-10.8124
▁곡	-10.8125
로우	-10.8125
▁재미없었음	-10.8127
▁베일	-10.8129
선생님	-10.8132
▁아닐	-10.8133
▁여태까지	-10.8135
딴	-10.8136
▁성인이	-10.8137
▁길다	-10.8139
▁뭐랄까	-10.814
▁뉴스	-10.8142
▁제목은	-10.8143
▁감명	-10.8145
▁샤	-10.8146
▁지루했음	-10.8149
▁안봐서	-10.815
▁개소리	-10.8151
▁통해서	-10.8153
▁호감	-10.8153
▁어쨌든	-10.8154
▁소리가	-10.8154
밑에	-10.8155
▁시간아까워	-10.8156
▁마법	-10.8166
잃	-10.8167
▁듬	-10.8168
나무	-10.8168
▁심오한	-10.8171
읽	-10.8171
아까운영화	-10.8173
▁기억을	-10.8175
▁보는동안	-10.8177
▁까는	-10.8178
▁잔혹	-10.818
▁뻥	-10.8188
▁되어야	-10.8189
▁나무	-10.819
▁정신없	-10.8194
시청률	-10.8198
▁택	-10.82
▁사과	-10.8202
이니까	-10.8206
▁죽는다	-10.8206
▁장진	-10.8206
▁거기	-10.8209
▁지금이나	-10.821
범죄	-10.8216
죽여	-10.822
겁	-10.8221
셔서	-10.8225
▁캐리	-10.823
▁아닌것	-10.823
▁이후에	-10.8233
항	-10.8236
▁텐데	-10.8236
이긴	-10.824
스크	-10.8241
▁아리	-10.8246
▁E	-10.8251
하하	-10.8251
렷	-10.8252
비디오	-10.8253
랴	-10.8255
▁향기	-10.8256
▁때가	-10.8257
▁승	-10.8257
개가	-10.8259
▁달리는	-10.8266
기술	-10.8266
동생	-10.8266
하죠	-10.8268
였네	-10.8269
▁흉내	-10.827
보라	-10.8272
▁구경	-10.8273
말고는	-10.8274
▁대표	-10.8274
노답	-10.8275
▁R	-10.8279
옷	-10.828
ᄉᄇ	-10.8282
▁없으니	-10.8282
을뿐	-10.8284
폭력	-10.8285
▁다보고	-10.8286
쳤다	-10.8288
하실	-10.8288
▁가야	-10.8297
부러	-10.8298
여행	-10.8298
자체	-10.83
성룡	-10.8301
▁쓰지	-10.8303
껀	-10.8304
남는	-10.8304
▁때는	-10.8306
▁배꼽	-10.8307
-_-;	-10.8307
▁늙어	-10.8307
쾌	-10.8308
같아요	-10.8309
▁연기력과	-10.831
▁내시간	-10.8311
하기는	-10.8311
▁삼가	-10.8312
시킬	-10.8317
자막	-10.8318
뜸	-10.8319
▁팝콘	-10.8319
▁김민종	-10.832
▁박평식	-10.832
▁원주율	-10.832
▁트랜스포머	-10.832
하고싶은	-10.832
▁모순	-10.832
▁퇴보	-10.8322
▁고인의	-10.8323
▁첫번째	-10.8323
▁쓰레기를	-10.8325
▁알리	-10.833
▁적당하다	-10.8331
▁조악	-10.8331
▁정통	-10.8332
▁제왕	-10.8332
▁신세계	-10.8332
▁러브스토리	-10.8337
작가님	-10.8339
▁이따구로	-10.834
이란게	-10.834
▁사라진	-10.8341
▁더욱더	-10.8342
지루한	-10.8342
▁G	-10.8343
▁실감	-10.8345
▁오랜만	-10.8347
다운받	-10.8348
▁애국심	-10.8348
▁엑스맨	-10.8351
▁넘치	-10.8356
이형	-10.8358
▁농담	-10.8359
▁환상적인	-10.8359
▁힙합	-10.8365
스럽	-10.8369
▁어이없고	-10.837
맞는	-10.837
거랑	-10.8371
▁가상	-10.8371
▁갖춘	-10.8373
▁작품중	-10.8373
▁최하	-10.8373
▁마무리가	-10.8375
▁최고인	-10.8377
▁갖	-10.8378
▁이것저것	-10.8379
이기도	-10.8382
놈이	-10.8383
보여주	-10.8385
▁네이버평점	-10.8386
탁월한	-10.8386
▁돈으로	-10.8386
▁중국영화	-10.8387
▁통쾌한	-10.8389
▁많음	-10.8389
▁세상의	-10.839
▁불쾌한	-10.8391
감성	-10.8393
▁전지현	-10.8394
이였음	-10.8394
었을까	-10.8396
W	-10.8396
면에서	-10.8397
이상은	-10.8401
▁상상력이	-10.8402
▁제외	-10.8404
▁느꼈	-10.8404
▁기준	-10.8405
▁드라마라고	-10.8408
▁인생에서	-10.8412
이기	-10.8419
▁아침드라마	-10.842
▁명작이라고	-10.8421
▁자체로	-10.8421
했었다	-10.8421
보시길	-10.8421
▁작품에	-10.8424
▁보고싶네요	-10.8428
달라	-10.8428
▁영화중에서	-10.843
▁한거	-10.8433
마음이	-10.8437
am	-10.844
▁원숭이	-10.8442
빼고는	-10.8442
▁-_-;;	-10.8445
잘못	-10.8446
▁돈아깝다	-10.8447
▁J	-10.8449
▁시간은	-10.8449
자들의	-10.8451
▁데뷔작	-10.8455
▁쌍	-10.8456
나면	-10.8459
▁예술이	-10.8461
ᄒᄒᄒᄒ	-10.8461
중간에	-10.8463
▁발연기에	-10.8465
▁눈치	-10.8466
란다	-10.8467
뎅	-10.8468
내용을	-10.8469
라곤	-10.8473
그녀	-10.8476
성에	-10.8479
발연기	-10.848
▁철학적	-10.848
▁시키	-10.8483
▁불쌍해	-10.8488
▁형식	-10.8488
행복	-10.8489
냈다	-10.8492
굳	-10.8494
▁것과	-10.8494
▁야하지도	-10.8497
▁미쳐	-10.8498
▁인도영화	-10.8499
▁재밋는	-10.85
▁케미	-10.8502
▁기대했던	-10.8506
리를	-10.8508
▁나온거	-10.8512
▁반도	-10.8514
▁멋진영화	-10.8515
보려고	-10.8518
▁우리나라에서	-10.8518
콜	-10.8518
▁끔	-10.8519
▁이끌어	-10.8524
▁한방	-10.8528
▁장르의	-10.8529
특유의	-10.8531
심이	-10.8532
오래	-10.8534
천재	-10.8537
▁좋겠	-10.8541
▁웃긴다	-10.8542
함은	-10.8542
재미있음	-10.8543
나마	-10.8545
▁뉴	-10.8546
▁남긴	-10.855
립니다	-10.855
딘	-10.855
엑	-10.8551
나오네	-10.8558
▁부실	-10.8558
됐	-10.8558
▁알려주	-10.856
멸	-10.8561
영화보다	-10.8561
▁고등학생	-10.8563
▁정확히	-10.8564
▁톰크루즈	-10.8564
줫	-10.8564
^_^	-10.8564
▁엽문	-10.8564
▁사무라이	-10.8564
▁스킵	-10.8564
▁흑역사	-10.8564
▁전도연	-10.8564
▁오우삼	-10.8564
▁드래곤볼	-10.8564
▁몰락	-10.8565
▁지브리	-10.8566
▁이민기	-10.8566
▁봣	-10.8566
▁욕만	-10.8566
▁학살	-10.8567
▁더더욱	-10.857
▁모자란	-10.8571
웃긴	-10.8573
▁어떠한	-10.8575
▁성경	-10.8575
▁의미없는	-10.8575
▁임신	-10.8575
▁굉장한	-10.8576
▁본적이	-10.8577
본사람	-10.858
▁유리	-10.8581
▁본방	-10.8581
▁화질	-10.8581
▁에드워드	-10.8582
▁흐지부지	-10.8582
▁잼나요	-10.8583
았어요	-10.8584
▁제목과	-10.8585
▁분위기를	-10.8586
▁복수극	-10.8588
안에서	-10.8588
▁초반부터	-10.8588
▁않네	-10.8589
▁시간도	-10.859
▁왔다	-10.8593
▁중요	-10.8594
▁상영관	-10.8594
▁털	-10.8595
▁남기고	-10.8595
▁그들을	-10.8595
▁장동건	-10.8596
▁신세경	-10.8596
미치	-10.8598
▁공포감	-10.8603
▁새록새록	-10.8603
▁신데렐라	-10.8603
▁막장이	-10.8605
▁찍을	-10.8605
▁변신	-10.8607
▁장난감	-10.861
▁추천한다	-10.861
▁이탈리아	-10.861
▁아쉬웠지만	-10.861
▁짜릿	-10.8611
▁굳굳	-10.8611
▁죽었	-10.8614
하시고	-10.8616
▁생각나게	-10.8616
▁명작이네요	-10.8616
▁최민식	-10.8618
▁슬펐다	-10.8619
않는	-10.8621
▁본격	-10.8621
일단	-10.8624
있을까	-10.8624
▁만화를	-10.8625
놨네	-10.8627
▁정점	-10.863
▁특이한	-10.8632
▁이루	-10.8632
▁MBC	-10.8632
▁깜놀	-10.8633
▁상대	-10.8633
▁쏘우	-10.8633
▁터지는	-10.8633
▁마지막은	-10.8634
▁자체도	-10.8635
▁오그라들	-10.8638
▁조연들	-10.8638
L	-10.864
▁만날	-10.8644
인지도	-10.8644
말도	-10.8645
▁도움이	-10.8653
▁비교하면	-10.8655
▁만화가	-10.8655
▁빠지게	-10.8658
▁했나	-10.8659
드라마는	-10.8659
사극	-10.8661
거같네요	-10.8662
능력	-10.8663
았는데	-10.8676
▁잔인하고	-10.8681
더라고요	-10.8683
▁기타	-10.8684
▁현실감	-10.8685
▁아류	-10.8687
▁결과는	-10.8687
▁여친	-10.8687
했었	-10.8688
▁지루하기	-10.8689
볼려고	-10.869
▁그들	-10.8693
평점은	-10.8694
▁주연의	-10.8698
으려고	-10.8699
▁믿지	-10.8699
▁선생	-10.8702
성의	-10.8702
▁못해서	-10.8703
▁끼	-10.8704
▁마리	-10.8705
▁남고	-10.8706
▁무서웠	-10.8713
▁다른건	-10.8714
버렸네	-10.8719
▁못하네	-10.8719
혼자	-10.8719
ar	-10.8722
▁안나오고	-10.8723
없었다	-10.8725
▁다루	-10.8725
▁한줄	-10.8726
년동안	-10.8727
▁편의	-10.8731
위에	-10.8731
마리	-10.8736
시간을	-10.8737
▁떠오르는	-10.8739
▁드라마의	-10.8739
느끼	-10.874
▁한글	-10.8743
▁스타일이	-10.8744
▁그시절	-10.8745
▁메세지가	-10.875
▁평소	-10.8755
▁엔딩크레딧	-10.8756
▁유치하기	-10.8757
▁영환	-10.8758
▁재밌게봤는데	-10.8758
명을	-10.8761
먹은	-10.8768
▁아니네	-10.878
F	-10.878
멘	-10.8783
▁높은지	-10.8783
므	-10.8783
즐	-10.8783
쫌	-10.8787
라는데	-10.879
▁끝난다	-10.8793
▁나타나	-10.8794
스토리는	-10.8796
애가	-10.8797
▁올라	-10.8799
▁하던데	-10.8799
▁성적	-10.8801
▁잼없	-10.8805
돌려	-10.8808
밧	-10.8808
아닌가	-10.8809
▁벗어나	-10.8811
한마디로	-10.8811
넷	-10.8813
▁엉터리	-10.8814
▁인상깊게	-10.8814
썬	-10.8814
▁매끄럽지	-10.8814
▁키아누	-10.8814
▁니콜라스	-10.8814
▁best	-10.8814
▁보여줌	-10.8815
▁말아먹은	-10.8815
://	-10.8816
▁극찬	-10.8816
▁윌리스	-10.8817
▁나오는거	-10.8817
▁태양	-10.8817
찍는	-10.8817
▁2003	-10.8817
▁게임을	-10.8818
▁드문	-10.8819
▁유령	-10.882
▁실패작	-10.8821
▁영광	-10.8822
▁카피	-10.8823
▁모아	-10.8823
▁이상으로	-10.8823
▁잔잔하지만	-10.8823
▁한번씩	-10.883
▁r	-10.8834
가족이	-10.8837
▁만들어야	-10.8838
▁씁쓸	-10.8838
▁게스트	-10.8839
▁미장센	-10.884
▁황정민	-10.884
까요	-10.8842
▁하니	-10.8844
인물	-10.8845
▁다시보기	-10.8846
▁함부로	-10.8847
엿다	-10.8849
▁감흥	-10.8849
▁하지마라	-10.8849
▁조정	-10.8851
다음	-10.8852
국민	-10.8855
▁어설퍼	-10.8855
▁토니	-10.8855
▁믿을게	-10.8856
▁싶으면	-10.8856
▁도망	-10.8857
댓글	-10.886
▁의외의	-10.8862
▁강하게	-10.8863
▁아름다웠다	-10.8863
▁K	-10.8865
▁낚여서	-10.8867
였네요	-10.8868
▁불가	-10.8869
곳에	-10.887
만함	-10.887
년간	-10.8872
▁크리스	-10.8873
학생	-10.8876
▁멘탈	-10.8876
▁완죤	-10.8876
▁이정재	-10.8876
ᄏᄏᄏᄏᄏᄏᄏᄏᄏ	-10.8877
▁애니메이션이	-10.8878
▁오글거려서	-10.8879
자신	-10.8881
▁허무함	-10.8884
그때	-10.8887
점도아깝다	-10.8888
▁만세	-10.8889
▁할말을	-10.889
▁줘도	-10.8892
▁사람마다	-10.8892
▁8.5	-10.8893
▁읽는	-10.8895
▁몬	-10.8897
▁교회	-10.8898
처리	-10.8901
▁이영화보고	-10.8903
었어	-10.8913
줄알았는데	-10.8918
▁집단	-10.8921
▁또봐도	-10.8921
▁재밋는데	-10.8921
누가	-10.8922
▁찾을	-10.8923
▁혼자서	-10.8924
▁흘러가	-10.8925
▁짱짱맨	-10.8931
▁가치도	-10.8931
▁결말까지	-10.8932
▁낚였네	-10.8933
▁마누라	-10.8936
▁포함	-10.8937
차이	-10.8938
▁보일	-10.8938
▁어색함	-10.894
▁애가	-10.8943
▁잘해	-10.8943
▁단역	-10.8943
▁예술가	-10.8946
▁범인이	-10.8947
N	-10.895
▁잘만들	-10.8953
▁수입	-10.8954
▁ᄏᄏᄏᄏᄏᄏᄏᄏᄏᄏᄏ	-10.8955
▁조폭영화	-10.8956
▁믿어	-10.8956
▁찌질	-10.8962
▁처절	-10.8971
될듯	-10.8974
▁사회의	-10.8975
▁존스	-10.8981
있었는데	-10.8981
내려	-10.8981
▁괴	-10.8984
▁아니네요	-10.8984
어진	-10.8985
싫어	-10.8991
▁하나님	-10.8991
▁희	-10.8992
▁쓰레기네	-10.8995
편으로	-10.8999
랑은	-10.8999
▁힘들어	-10.9001
가아니라	-10.9003
▁영화내내	-10.9003
▁평가를	-10.9003
▁알아야	-10.9006
럴	-10.9006
▁생각했던	-10.9007
▁즐거움	-10.9007
삼류	-10.9014
▁신경	-10.9014
▁마음속에	-10.9015
▁먹먹	-10.9017
▁사실이	-10.9021
▁오랜	-10.9023
물로	-10.9026
90	-10.9027
▁바뀌	-10.903
▁곰	-10.9031
없는데	-10.9035
랫	-10.9036
▁추가	-10.9038
병맛	-10.9038
▁출신	-10.904
▁컷	-10.904
잖	-10.9041
▁돌리	-10.9041
썼	-10.9045
맹	-10.9047
귀여워	-10.9049
▁배가	-10.905
cg	-10.9051
점만점	-10.9051
▁영화적	-10.9054
▁아름다워	-10.9058
공부	-10.9059
▁오르	-10.906
▁만듬	-10.9064
형사	-10.9065
보지마라	-10.9065
▁지겹	-10.9066
덴	-10.907
▁스릴이	-10.907
▁개같은	-10.907
핫	-10.907
▁정당화	-10.907
▁젊음	-10.907
▁애들도	-10.907
▁고마운	-10.9071
▁경의를	-10.9071
죽음	-10.9071
▁가슴아픈	-10.9071
▁중학생	-10.9073
▁장혁	-10.9073
▁뽑아	-10.9074
▁몰랐는데	-10.9075
▁일어날	-10.9075
▁울었습니다	-10.9076
▁기록	-10.9077
▁존잼	-10.9077
▁나오다니	-10.9077
▁찬사를	-10.9078
▁안타깝네요	-10.9078
▁필요없음	-10.9079
▁재현	-10.908
▁자랑	-10.9082
▁레오	-10.9083
▁어케	-10.9084
▁스크린	-10.9084
▁에러	-10.9088
▁안좋은	-10.909
▁피식	-10.9091
▁재밌기만	-10.9092
▁소재에	-10.9093
이었	-10.9093
으시	-10.9094
▁겉멋만	-10.9094
으러	-10.9096
▁상당한	-10.9096
▁그럴싸	-10.9097
었는지	-10.9097
▁아이들은	-10.9108
▁t	-10.9108
볼수	-10.9108
▁알려준	-10.911
하느라	-10.911
▁되나	-10.911
유머	-10.9111
▁도라에몽	-10.9112
▁차태현	-10.9112
▁죽기전에	-10.9113
▁해외	-10.9114
▁돈낭비	-10.9115
액션영화	-10.9119
▁독립	-10.9121
▁말라	-10.9121
설명	-10.9122
는것이	-10.9127
▁이야기에	-10.9128
방에서	-10.9129
▁폭풍	-10.913
▁이용	-10.9133
▁작품들	-10.9135
일때	-10.9135
▁꺼내	-10.9138
울음	-10.9139
보셈	-10.914
▁재미나게	-10.9142
▁슬프네요	-10.9145
▁g	-10.9146
대단히	-10.9146
▁클라스	-10.915
▁믿음	-10.9154
▁없었는데	-10.9157
▁폰	-10.9159
장애	-10.9159
▁우리나라의	-10.916
▁볼만한데	-10.9163
시에	-10.9165
▁혜	-10.9165
▁넘어가	-10.9166
▁환장	-10.9167
▁재미있어서	-10.9168
▁더럽다	-10.9169
▁웃음과	-10.9169
▁최고최고	-10.917
▁잼없음	-10.917
▁졸작이다	-10.9171
웨	-10.9171
▁슬퍼요	-10.9171
▁재밌었고	-10.9172
아무	-10.9172
주고싶	-10.9175
▁재미만	-10.9175
▁클라라	-10.918
▁소리만	-10.918
볼까	-10.9181
▁좋아하네요	-10.9182
▁슬프	-10.9188
▁답답해서	-10.9189
▁이성	-10.9189
▁첨에	-10.9191
▁그이상	-10.9192
▁끝은	-10.9195
▁모르나	-10.9197
이요	-10.9203
▁작가는	-10.9205
▁움직이	-10.9206
▁충격이	-10.9207
▁장소	-10.921
것도아니고	-10.9213
▁지루함이	-10.9215
▁킬링타임용도	-10.922
▁등록	-10.9222
▁고수	-10.9223
▁던져	-10.9226
같네	-10.9228
▁마다	-10.9229
틴	-10.9233
스러워	-10.9235
▁거다	-10.9237
▁옛날영화	-10.9238
in	-10.924
씨도	-10.9241
영화네요	-10.9246
아직	-10.9247
▁현실에서	-10.9249
▁같네	-10.9249
▁선택한	-10.9254
믿	-10.9254
▁장면만	-10.9256
▁머리를	-10.9257
앞으로	-10.9258
▁빠지	-10.9258
야겠다	-10.9259
▁쓰레기임	-10.926
점주고	-10.9261
성은	-10.9261
▁안남	-10.9261
댄	-10.9264
▁우리들	-10.9264
▁대학생	-10.9265
▁버전	-10.9267
▁ᄃ	-10.9269
▁재주	-10.9269
좋앗	-10.9269
▁일본이	-10.9269
▁충실	-10.9271
떼	-10.9272
▁재밌게본	-10.9277
▁캐릭터와	-10.9277
▁퀄리티가	-10.9283
▁돌아오	-10.9285
▁여배우가	-10.9285
▁김혜수	-10.9289
▁사라져	-10.929
▁라스트	-10.9291
▁힘들게	-10.9294
▁모욕	-10.9294
감동도	-10.9295
▁to	-10.9299
였다니	-10.9301
▁얻어	-10.9302
▁가족들	-10.9304
한건지	-10.9306
▁하던가	-10.9306
▁정주행	-10.9307
저런	-10.9307
▁흐르	-10.9309
▁아닌지	-10.9309
찰	-10.9311
▁개똥	-10.9311
그래픽	-10.9314
▁숙	-10.9318
▁300	-10.9318
▁주제는	-10.9319
▁즐길	-10.932
▁남자를	-10.932
촬영	-10.9321
대단	-10.9321
tv	-10.9323
필름	-10.9324
♥♥♥♥	-10.9325
▁조아	-10.9326
렉	-10.933
▁펼쳐	-10.9331
하지마	-10.9331
까지도	-10.9332
부분도	-10.9332
▁홧팅	-10.9333
▁크리스찬	-10.9334
▁눈요기	-10.9334
▁성찰	-10.9334
▁2004	-10.9336
▁혹평	-10.9336
창있네	-10.9337
끼고	-10.9338
▁아이러니	-10.9339
영상미	-10.9343
이아니라	-10.9343
▁연기한	-10.9344
▁억지설정	-10.9344
▁대표적인	-10.9344
▁괜찬	-10.9345
▁세계관	-10.9345
▁몇번이나	-10.9345
▁볼만했는데	-10.9345
▁어렸을적	-10.9346
▁더러워	-10.9348
▁아니라서	-10.9349
시대에	-10.9351
▁알겠지만	-10.9352
▁도중에	-10.9352
▁끝판왕	-10.9353
▁재밌당	-10.9353
겁니까	-10.9356
▁남발	-10.9357
▁신선하	-10.9358
실력	-10.9359
어리	-10.9364
▁다세포소녀	-10.9368
▁우리나라에	-10.9371
▁틈	-10.9372
,,,,,,	-10.9373
▁보고싶어	-10.9374
아쉽다	-10.9375
▁아프리카	-10.9376
▁임청하	-10.9376
괜찮은	-10.9376
후반	-10.9377
▁항	-10.9377
안나	-10.9378
▁처음이네요	-10.9379
▁문제는	-10.9379
▁글쎄요	-10.9379
▁몇년	-10.9381
쪽으로	-10.9382
▁다운로드	-10.9384
▁시원한	-10.9385
▁원작소설	-10.9386
▁남들	-10.9389
느껴	-10.9389
▁무리수	-10.939
기대하고	-10.939
!!!!!!!	-10.9391
▁즉	-10.9392
되게	-10.9393
▁잘만들었	-10.9396
▁배려	-10.9399
▁납치	-10.9399
이라는게	-10.94
▁김태희	-10.94
뿐인	-10.9402
▁내놓	-10.9405
▁같지만	-10.9408
▁들어도	-10.9409
점에서	-10.9413
하더니	-10.9416
▁밑도	-10.9418
▁발음	-10.942
▁분명히	-10.942
멀	-10.942
▁매력은	-10.9422
▁꿈꾸는	-10.9422
▁좋아한다	-10.9424
▁존재하는	-10.9424
▁싶지만	-10.9424
▁거슬리	-10.9425
▁한번쯤은	-10.9425
▁설정에	-10.9426
▁범	-10.9429
▁심각	-10.943
▁무서울	-10.9431
▁남는건	-10.944
▁싹	-10.9446
저는	-10.9447
다음으로	-10.9452
▁만들었네	-10.9456
보려	-10.9457
▁그지같은	-10.9459
▁블루	-10.9462
▁일본판	-10.9462
▁마지막장면	-10.9463
필요없	-10.9463
려다	-10.9464
▁엉망이	-10.9468
▁충	-10.9469
상태	-10.947
▁대사를	-10.9472
▁끄는	-10.9476
▁유혹	-10.9476
하지않고	-10.9477
스릴	-10.9478
▁생각한	-10.9482
▁매력있는	-10.9482
▁된다는	-10.9483
려다가	-10.9483
▁중심	-10.9488
어색	-10.9498
▁돈과	-10.9499
▁개봉을	-10.95
▁저러	-10.9501
▁뿌리	-10.9502
▁있나요	-10.9502
▁주먹	-10.9508
있는영화	-10.9509
▁좋아하고	-10.9511
잡고	-10.9513
▁한대	-10.9514
▁스토리지만	-10.9518
▁다크	-10.952
▁안들	-10.9522
▁지지	-10.9522
저도	-10.9523
▁즐거웠	-10.9523
▁밝혀	-10.9525
▁예술성	-10.9527
조아	-10.9529
▁무게	-10.9531
옆	-10.9533
▁예고편이	-10.9535
▁되어서	-10.9536
▁무료	-10.9537
▁돋보이	-10.9539
죽어	-10.9539
판이	-10.9541
상이	-10.9542
등급	-10.9544
까지만	-10.9546
▁성룡이	-10.9548
▁무한	-10.9553
드가	-10.9562
▁영화감독	-10.9562
▁짧아	-10.9562
▁영화라는게	-10.9563
잘봤습니다	-10.9564
▁안되나	-10.9566
▁시나리오도	-10.9566
▁믿는	-10.9568
▁상실	-10.9569
▁이뻐	-10.9571
장면에서	-10.9571
▁있어도	-10.9572
▁>	-10.9576
널	-10.9577
▁편안	-10.9577
▁대사는	-10.9577
th	-10.958
▁덤	-10.9586
▁않아도	-10.9586
이영화는	-10.9586
▁부르는	-10.9586
▁ᄍ	-10.9588
▁학생들	-10.9588
▁표정연기	-10.9589
▁흐름이	-10.9595
튀	-10.9596
작품이	-10.9597
▁주제도	-10.9597
▁묻어	-10.9598
개연성	-10.9598
▁참고로	-10.9598
▁않으면	-10.9599
▁it	-10.9599
찐	-10.96
했더니	-10.9601
쟈	-10.9602
마냥	-10.9603
▁드림웍스	-10.9604
▁똑바로	-10.9604
▁송혜교	-10.9604
▁어둡고	-10.9604
▁태어난	-10.9604
▁한쿡영화	-10.9604
▁끊임없	-10.9604
▁정신나간	-10.9604
▁사로잡	-10.9604
▁모티브	-10.9604
▁가해자	-10.9605
▁짐승	-10.9605
다시봐도	-10.9605
▁문득	-10.9605
▁자본주의	-10.9605
▁지나친	-10.9605
▁마틴	-10.9606
▁절제된	-10.9606
▁접근	-10.9606
▁절반	-10.9607
▁말해	-10.9608
따윈	-10.9609
▁먹먹하다	-10.9609
별루	-10.961
▁확실한	-10.961
▁외국영화	-10.9611
▁우왕	-10.9611
▁일탈	-10.9613
▁훌륭함	-10.9614
▁있겠지	-10.9614
▁스토리라인	-10.9614
진행	-10.9616
▁발레	-10.9617
▁중간부터	-10.9618
▁견	-10.962
묘사	-10.9622
▁남자라면	-10.9623
▁전락	-10.9623
▁부디	-10.9623
나왔으면	-10.9623
▁돋보인다	-10.9625
▁슬프지만	-10.9626
주인공이	-10.9626
겠냐	-10.9627
과도한	-10.9628
시리즈를	-10.963
▁오인혜	-10.9632
돌이	-10.9632
▁가슴아프	-10.9633
▁차마	-10.9634
▁액션의	-10.9637
▁초등학교때	-10.9638
▁조잡	-10.9638
▁없구나	-10.9639
▁인종차별	-10.964
▁부자	-10.964
▁작품이라	-10.964
▁영화제목	-10.964
▁예쁘게	-10.9642
▁솔직한	-10.9644
▁오글거리고	-10.9645
하나요	-10.9645
▁구원	-10.9645
18	-10.9647
▁돈만	-10.965
▁무엇	-10.965
▁적이	-10.9653
해줘서	-10.9654
▁아까워요	-10.9655
▁감수성	-10.9656
▁정신병	-10.9656
▁색채	-10.9656
▁장면과	-10.9659
▁나참	-10.966
▁존경합니다	-10.9661
▁명성을	-10.9662
▁복잡한	-10.9662
▁The	-10.9664
▁고맙습니다	-10.9664
▁7.5	-10.9665
▁재미있네	-10.9669
모를	-10.967
..............	-10.967
성과	-10.9671
달까	-10.9671
봣음	-10.9671
잇고	-10.9677
▁매력적이다	-10.9678
들이나	-10.9679
▁돈은	-10.9681
▁감옥	-10.9681
▁출현	-10.9682
▁사랑으로	-10.9685
▁높네	-10.9685
일을	-10.9685
▁대실망	-10.9686
다보니	-10.9687
▁지루하기만	-10.9689
▁일본영화는	-10.9689
▁경제	-10.969
▁오글거리	-10.9694
같지만	-10.9695
▁소지섭	-10.9695
▁드라마네요	-10.9697
이젠	-10.9698
▁200	-10.97
자와	-10.9701
판을	-10.9701
▁망쳐놓	-10.9702
▁철학적인	-10.9703
▁찾아볼	-10.9703
▁쓰레기는	-10.9705
▁둔	-10.9708
▁분위기에	-10.9709
▁울었던	-10.971
▁예산	-10.9711
역의	-10.9714
▁더럽고	-10.9716
▁지키	-10.9727
때메	-10.9728
▁아쉽고	-10.973
▁정말정말	-10.9732
다리	-10.9732
▁k	-10.9735
▁존재한다	-10.9739
▁이유로	-10.9741
▁나은듯	-10.9741
▁배경과	-10.9743
▁예고편만	-10.9744
▁농	-10.9747
un	-10.975
▁잡고	-10.9753
▁실화라는	-10.9754
▁안했는데	-10.9757
▁뭉	-10.9758
▁바꾼	-10.9758
▁지들	-10.9759
▁웃음만	-10.976
시네요	-10.9766
▁공포도	-10.9766
인간들	-10.9768
an	-10.9769
▁해주세요	-10.9771
▁혼란	-10.9775
분들이	-10.9785
사진	-10.9788
안돼	-10.979
▁끝날때	-10.979
▁따라한	-10.9792
▁여인	-10.9793
보기싫	-10.9794
▁후기	-10.9795
자면	-10.9798
인척	-10.9799
▁걸리	-10.98
▁프리	-10.9801
▁캐릭터의	-10.9804
!!!!!!!!	-10.9804
다들	-10.9808
▁머리에	-10.981
집에서	-10.9817
▁안된	-10.9817
▁첩보	-10.9818
ic	-10.9821
▁느낌도	-10.9823
글자	-10.9824
타임	-10.9825
▁머가	-10.9831
줄은	-10.9832
▁극복	-10.9833
킬	-10.9835
ᄍ	-10.9843
▁동심	-10.9843
죽이	-10.9846
하나로	-10.9846
▁끔찍	-10.9847
▁젖	-10.9847
마이	-10.985
▁한숨	-10.9851
▁속은	-10.9853
▁울었	-10.9862
▁몸을	-10.9862
▁웃기지	-10.9863
달라고	-10.9864
경이	-10.9865
미는	-10.9866
여야	-10.9866
▁놓은	-10.987
수를	-10.9871
부를	-10.9871
빡	-10.9871
ᄐ	-10.9871
21	-10.9876
덤	-10.9876
측	-10.9877
드려요	-10.9878
겠다는	-10.9879
컬	-10.9879
챙	-10.9879
▁신기한	-10.9879
칙	-10.9881
칸	-10.9881
밍	-10.9881
▁뜨거운	-10.9881
▁예쁨	-10.9881
▁용두사미	-10.9881
▁주려	-10.9881
▁파워레인저	-10.9881
▁두려움	-10.9881
▁팀버튼	-10.9881
장에서	-10.9882
▁뉴욕	-10.9882
▁비싼	-10.9883
배속으로	-10.9883
▁비롯	-10.9883
챙겨	-10.9884
른다	-10.9884
불륜	-10.9885
▁출발	-10.9886
▁초능력	-10.9887
▁이정도로	-10.9887
▁넘어선	-10.9889
▁재수없	-10.9889
▁저게	-10.989
▁없군	-10.9891
▁몸이	-10.9893
▁되었는데	-10.9894
▁코미디는	-10.9895
▁말하려는	-10.9895
▁행복해	-10.9895
아내	-10.9896
▁노력이	-10.9897
▁사실적으로	-10.9898
▁짧게	-10.9899
▁앞서	-10.9901
▁받아들이	-10.9901
▁중학교때	-10.9906
▁보셈	-10.9907
▁외면	-10.9909
▁몰입되	-10.991
▁송지효	-10.991
언제	-10.9912
▁현실적으로	-10.9912
▁가려	-10.9915
▁효	-10.9916
▁다큐를	-10.9916
▁최고였습니다	-10.9917
▁부럽다	-10.992
이면서	-10.9922
▁실패한	-10.9926
다만	-10.9928
약간	-10.9929
▁미국판	-10.993
▁환자	-10.9931
▁이쁘게	-10.9932
▁별하나	-10.9933
▁미안해	-10.9933
▁포켓몬	-10.9934
스케	-10.9935
▁힘내세요	-10.9935
번이나	-10.9939
없지	-10.9939
▁다시보게	-10.9941
▁뺏	-10.9943
겠다고	-10.9943
▁이연희	-10.9943
평점을	-10.9944
▁알겠	-10.9946
▁전부다	-10.9947
만들지	-10.9948
▁아침에	-10.995
▁불편함	-10.9954
시오	-10.9955
죽이고	-10.9956
▁먹먹한	-10.9963
▁엉성함	-10.9963
문제를	-10.9964
해져	-10.9964
▁선동영화	-10.9965
▁제시	-10.9967
▁틈이	-10.9968
▁조명	-10.9968
▁희망이	-10.9969
▁표현했다	-10.997
▁공포영화가	-10.9971
▁볼만해요	-10.9973
▁허접하다	-10.9974
재미는	-10.9974
▁즐겁고	-10.9976
▁팍팍	-10.9976
▁조차	-10.9976
▁향해	-10.9977
▁택시	-10.9978
▁와닿는	-10.998
▁읽은	-10.9981
▁똥을	-10.9983
▁영상미는	-10.9985
▁캐스팅도	-10.9986
▁멀리	-10.9986
▁옳	-10.9987
▁버릴	-10.9989
▁코드가	-10.9992
▁자유를	-10.9994
▁국산	-10.9996
아나	-10.9998
▁않았음	-11.0002
▁쩔	-11.0003
..2	-11.0006
▁짱나	-11.0008
할려고	-11.0008
▁달아	-11.0009
드라마를	-11.0011
▁최대의	-11.0012
▁섹시한	-11.0014
▁한장면	-11.0018
이건뭐	-11.0027
▁어딘가	-11.003
때도	-11.003
이유는	-11.0031
le	-11.0037
가슴이	-11.0037
었을텐데	-11.0038
▁지경	-11.0038
하는듯	-11.0038
떨	-11.004
일세	-11.0042
▁별거	-11.005
▁달달	-11.0052
기법	-11.0054
저질	-11.0064
▁재밌게봤다	-11.0064
▁스케일이	-11.0064
▁죽일	-11.0069
▁기억될	-11.0071
이런거	-11.0073
아이가	-11.0075
이었고	-11.0076
주네	-11.0079
▁별로인	-11.0082
▁별루다	-11.0083
it	-11.0084
▁최후	-11.0085
▁너무재밌어요	-11.0086
▁아니냐	-11.0088
▁외치	-11.0092
▁나니	-11.0093
al	-11.0103
▁이상함	-11.0103
▁그런영화	-11.0104
▁빛이	-11.0104
만들엇	-11.0104
▁대단하	-11.0104
▁전편의	-11.0108
▁비현실적	-11.0109
든가	-11.0109
잤	-11.0109
▁좋았어	-11.011
구리	-11.0112
슬프	-11.0112
▁향	-11.0113
▁지루하네	-11.0113
줘도	-11.0114
추억	-11.0115
▁멋졌	-11.0117
▁갔는데	-11.0118
▁영화란	-11.0118
la	-11.0118
갔으면	-11.0119
ᄏᄏᄏᄏᄏᄏᄏᄏ	-11.0119
라인	-11.012
▁뭣	-11.0123
▁흥미로웠	-11.0124
반갑	-11.0124
▁잔잔하	-11.0126
세대	-11.0127
잊	-11.0129
▁만나는	-11.013
▁다른거	-11.013
▁정도다	-11.0131
일수도	-11.0131
▁집어	-11.0135
▁반전영화	-11.0136
...;;;	-11.0137
▁날아	-11.0138
▁방식	-11.0138
▁삐	-11.014
같애	-11.0141
그게	-11.0141
▁몰아	-11.0144
형제	-11.0144
받았	-11.0146
▁보고싶어요	-11.0149
▁하긴	-11.015
맞아	-11.0153
거보고	-11.0154
▁폐	-11.0154
▁즐	-11.0154
▁허탈	-11.0155
▁이해하지	-11.0156
▁노력한	-11.0156
삭	-11.0157
▁짱임	-11.016
납	-11.0161
▁경기	-11.0163
균	-11.0163
▁것들을	-11.0164
▁전쟁이	-11.0164
벼	-11.0164
렀	-11.0165
할거	-11.0165
못해	-11.0166
▁고스란히	-11.0167
▁양동근	-11.0167
▁어우러진	-11.0167
▁엉덩이	-11.0167
▁찝찝한	-11.0167
윽	-11.0167
▁김강우	-11.0167
▁클리셰	-11.0167
▁불후의	-11.0167
▁다니엘	-11.0167
▁흥미롭고	-11.0168
▁잃어버린	-11.0168
▁초중반	-11.0169
▁은퇴	-11.0169
뽕	-11.0169
▁에릭	-11.0169
▁추락	-11.017
뉴	-11.017
▁하려는	-11.017
톱	-11.0171
▁여왕	-11.0173
▁지들끼리	-11.0173
▁말았어야	-11.0173
▁그럼에도	-11.0174
합시다	-11.0174
덜	-11.0175
▁평점조절	-11.0175
습니까	-11.0175
분들은	-11.0176
흐름	-11.0176
▁엿	-11.0177
카메라	-11.0177
점대라니	-11.0178
▁불법	-11.0178
겨운	-11.0179
진정한	-11.0179
꺼면	-11.018
▁놀라	-11.018
▁않았으면	-11.018
시간낭비	-11.0181
분만	-11.0182
▁좋아한다면	-11.0182
좋았어요	-11.0182
▁쓰레기들	-11.0183
영웅	-11.0184
▁잘생기고	-11.0184
먼저	-11.0185
모델	-11.0186
들로	-11.0187
▁날리	-11.0187
▁무슨말이	-11.0188
▁심히	-11.0188
관련	-11.019
▁나한테	-11.0191
▁알게해준	-11.0193
▁나온다는	-11.0193
▁후반에	-11.0194
훌륭한	-11.0194
...;;	-11.0194
▁엄마의	-11.0195
▁백배	-11.0196
▁관객에게	-11.0196
▁해피	-11.0196
▁in	-11.0196
▁주상욱	-11.0197
▁아동용	-11.0197
▁결말에	-11.0198
▁빌리	-11.0198
받아	-11.02
▁인간적인	-11.02
▁구라	-11.0201
▁분위기도	-11.0201
▁보는사람	-11.0201
인거같다	-11.0202
▁맘이	-11.0204
▁서프라이즈	-11.0205
▁인터뷰	-11.0205
▁수준이하	-11.0206
▁메리	-11.0207
할수있는	-11.0209
▁영화판	-11.021
때는	-11.0212
▁어린이용	-11.0214
이쁘고	-11.0217
▁영원	-11.0218
▁만들려고	-11.0219
만듬	-11.022
▁광팬	-11.0221
줬으면	-11.0222
▁신념	-11.0224
▁유지태	-11.0225
▁물건	-11.0225
판에	-11.0227
▁잠들	-11.0229
▁조승우	-11.023
일에	-11.0231
▁신민아	-11.0231
▁ᄇᄉ	-11.0232
▁2013	-11.0232
▁어이없어서	-11.0232
▁말아	-11.0234
▁무서웠다	-11.0234
▁난국	-11.0235
▁없었으면	-11.0235
▁기대도	-11.0237
▁카메론	-11.0239
▁산만한	-11.024
▁이혼	-11.024
▁배경도	-11.0244
게만드는	-11.0245
▁돌려줘	-11.0246
해지고	-11.0247
할지	-11.0247
▁일어나	-11.0249
▁목숨	-11.025
있냐	-11.025
치도	-11.025
신분	-11.0251
모습이	-11.0253
웃기고	-11.0254
▁던지는	-11.0254
▁안되서	-11.0255
▁노래를	-11.0255
▁아카데미	-11.0256
소름	-11.0256
▁패션	-11.0256
▁전투씬	-11.0257
맞추	-11.0258
▁쏴	-11.0264
방울	-11.0269
▁불행	-11.0271
없어요	-11.0271
▁보이지만	-11.0273
▁없었고	-11.0274
많다	-11.0274
▁의식	-11.0275
▁기대되는	-11.0275
▁클	-11.0277
▁괜찮아	-11.0277
▁예뻐	-11.0283
▁허무하게	-11.0284
..."""	-11.0285
▁조지	-11.0285
▁보여주지	-11.0286
들이랑	-11.0287
▁조금씩	-11.0287
▁좋아해요	-11.0287
▁한숨만	-11.0288
▁터지	-11.0288
▁아쉽긴	-11.0289
▁연출을	-11.0291
▁알게되	-11.0292
▁재미있었고	-11.0296
▁뛰어나	-11.0299
es	-11.03
드라마가	-11.0301
▁제작사	-11.0301
▁엄마랑	-11.0301
요소를	-11.0303
▁운동	-11.0304
▁모르겟다	-11.0305
▁심각한	-11.0305
▁저희	-11.0307
쟁	-11.0311
▁죽인다	-11.0312
폐	-11.0315
▁진정성	-11.0315
하는건지	-11.0316
▁감흥이	-11.0316
너무너무	-11.0317
♡♡	-11.0319
▁짜증나네	-11.0319
▁그래픽이	-11.0322
도좋고	-11.0322
지마세요	-11.0326
▁그지같	-11.0328
▁틀어	-11.0329
▁만든것	-11.0332
이해가	-11.0334
▁괜찮네	-11.0338
▁봤었다	-11.0339
▁전쟁을	-11.035
▁애매	-11.035
▁남았다	-11.0354
순위	-11.0355
~♥	-11.0361
배는	-11.0364
할수도	-11.0367
는건가	-11.0368
▁강력추천	-11.0369
겐	-11.0371
▁움직이는	-11.0371
▁있는듯	-11.0377
▁천만	-11.0378
었네	-11.0379
▁고딩	-11.0382
▁어우	-11.0382
▁찢어	-11.0383
▁비중	-11.0384
▁숲	-11.0388
▁28	-11.0388
▁태어나	-11.0393
▁영상으로	-11.0395
척하는	-11.0396
▁재밌는영화	-11.0396
쩌	-11.0398
▁모여	-11.0402
엇어요	-11.0405
▁아프	-11.041
앗다	-11.0411
▁주위	-11.0411
▁개념	-11.0413
는줄	-11.0422
▁탄	-11.0422
이유가	-11.0426
▁단편영화	-11.043
▁막장으로	-11.043
아빠가	-11.043
▁위에	-11.0431
▁먹었	-11.0432
내서	-11.0433
영환	-11.0434
▁웃게	-11.0434
돈으로	-11.0435
바다	-11.0442
▁액션에	-11.0443
▁위험	-11.0443
▁밋밋	-11.0443
▁안성기	-11.0445
▁하는것	-11.0446
▁허술	-11.0452
보고있어요	-11.0454
▁끼워	-11.0455
▁미술	-11.0457
▁지어	-11.0457
하더라도	-11.0459
느니	-11.046
▁난잡	-11.046
하듯	-11.0461
▁워	-11.0461
흉	-11.0461
뎁	-11.0461
▁ebs	-11.0461
▁웹툰	-11.0461
▁펭귄	-11.0461
▁러셀	-11.0461
▁퍼즐	-11.0462
습니당	-11.0462
▁였다	-11.0462
▁리메이크작	-11.0462
▁고찰	-11.0462
▁콜린	-11.0463
▁알았더니	-11.0463
▁가끔씩	-11.0463
▁빠져드는	-11.0464
▁자세히	-11.0464
▁건강	-11.0465
▁우익	-11.0466
지않게	-11.0466
▁충격을	-11.0467
▁지루했어요	-11.0468
▁지났지만	-11.0469
▁물씬	-11.0469
이러	-11.047
▁총알	-11.047
말을	-11.0471
동물	-11.0472
▁주제에	-11.0472
▁공감가는	-11.0472
가면	-11.0473
▁성우들	-11.0473
▁주목	-11.0473
...............	-11.0474
생겨서	-11.0474
▁깔끔하고	-11.0475
▁나누	-11.0475
▁엉성하다	-11.0475
▁중반부	-11.0476
원주고	-11.0476
았습니다	-11.0477
▁않았을까	-11.0477
▁나왔음	-11.0478
▁쫓	-11.0478
맞고	-11.0479
인지는	-11.0479
코메디	-11.048
아줌마	-11.048
거든요	-11.048
▁남자와	-11.048
▁일깨워주는	-11.0481
보지마세요	-11.0483
▁서스펜스	-11.0483
메이	-11.0484
▁허술하고	-11.0486
예능	-11.0486
▁,,	-11.0487
▁다니는	-11.0487
▁생각나네요	-11.0488
▁약해	-11.0489
▁최고였어요	-11.0491
▁뭔가요	-11.0491
▁존내	-11.0492
▁무서워서	-11.0492
겨울	-11.0492
끼들	-11.0493
▁심심	-11.0495
▁이범수	-11.0495
▁살았	-11.0496
▁기차	-11.0497
▁뻔해서	-11.0498
▁안봐	-11.0498
해야할	-11.0498
▁촌	-11.05
▁임수정	-11.05
▁일요일	-11.05
▁조용히	-11.0502
▁때문이다	-11.0503
으신	-11.0504
▁화려하고	-11.0505
▁후한	-11.0508
▁후회함	-11.051
트로	-11.051
▁위기	-11.0512
▁어울려	-11.0512
이구만	-11.0514
▁심심한	-11.0516
▁훌륭하고	-11.0517
▁특징	-11.0518
▁강지환	-11.0518
▁됬	-11.0519
▁잘생겼	-11.0519
시네	-11.052
▁많지만	-11.0523
드립	-11.0524
▁많았	-11.0524
▁연기까지	-11.0524
▁정치적	-11.0526
▁환타지	-11.0527
▁뚝뚝	-11.0527
▁진부함	-11.0527
▁그들은	-11.0527
▁그지	-11.0529
▁서극	-11.0531
▁말해주는	-11.0531
▁거야	-11.0532
▁찾고	-11.0532
▁새끼들	-11.0532
▁시선으로	-11.0532
코드	-11.0535
▁영화계의	-11.0536
▁위험한	-11.0538
▁성우가	-11.0538
▁많지	-11.0538
▁됐는데	-11.054
▁상영시간	-11.0542
시면	-11.0542
로서의	-11.0543
으려	-11.0544
스토	-11.0544
▁말하면	-11.0545
하곤	-11.0546
▁중반까지	-11.0547
▁저거	-11.0547
이었지만	-11.0547
▁초딩이	-11.0549
▁보진	-11.055
▁명성	-11.055
하라고	-11.055
▁시간대	-11.0552
▁모야	-11.0555
확실	-11.0555
▁망쳤다	-11.0556
▁여튼	-11.0556
교육	-11.0557
▁지겨워	-11.0557
▁뻔하	-11.056
▁구성은	-11.0561
▁증말	-11.0561
▁못하	-11.0562
▁재미있었던	-11.0563
▁이완	-11.0563
램	-11.0564
▁무어	-11.0564
다는걸	-11.0564
실화	-11.0565
▁않았나	-11.0565
▁가치를	-11.0567
곳에서	-11.0568
▁나왔는데	-11.0568
영화였다	-11.0576
▁인물의	-11.0586
▁감동적으로	-11.0588
▁채우	-11.059
▁오락	-11.059
하지마세요	-11.0593
▁ᄏᄏᄏᄏᄏᄏᄏᄏᄏᄏ	-11.0595
만들고	-11.0597
번도	-11.0597
▁정이	-11.0597
▁쓰렉	-11.0598
년을	-11.0599
있었던	-11.0599
▁것만으로도	-11.0603
▁쯧쯧	-11.0606
▁♥	-11.0606
만든영화	-11.0607
▁날려	-11.0609
▁누워	-11.0609
▁손가락	-11.0614
▁나왔을	-11.0614
▁한수	-11.0616
▁방법이	-11.0616
▁뻔해	-11.0619
뭔지	-11.0625
평론가	-11.0626
▁으아	-11.0627
성공	-11.0629
▁플레이	-11.063
▁재미있다고	-11.0634
씨를	-11.0636
물에	-11.0637
▁실사	-11.0639
▁마음의	-11.0639
네이버	-11.0642
▁남아있	-11.0646
▁먼지	-11.0649
▁않는데	-11.0652
드립니다	-11.0652
싶어서	-11.0655
▁화나	-11.0656
액션이	-11.0657
긴했지만	-11.0658
▁지루함의	-11.0658
팬이	-11.0658
▁개인의	-11.0659
▁전설이	-11.0666
▁누구도	-11.0669
▁영화평	-11.067
하는것도	-11.0671
▁만들어준	-11.0672
▁법정	-11.0675
차원	-11.0675
으세요	-11.0675
▁말만	-11.068
▁그럴듯	-11.0683
▁혹	-11.0683
정도의	-11.0686
▁열광	-11.0687
▁찬양	-11.0688
▁화려	-11.0688
▁벌어	-11.069
▁부른	-11.0692
▁슬픔이	-11.0693
▁낭만	-11.0696
님은	-11.0696
채널에서	-11.0697
▁따분	-11.0698
▁잘함	-11.0699
▁받아서	-11.0701
▁생생	-11.0703
▁티가	-11.0703
▁수작이	-11.0704
▁닮았	-11.0705
념	-11.0705
▁경악	-11.0706
▁편집이	-11.0706
▁상관	-11.0706
▁불가능	-11.0707
한텐	-11.071
했다가	-11.0711
데로	-11.0715
신의	-11.072
▁나온다고	-11.0725
▁기억도	-11.0725
▁부럽	-11.0726
멋진	-11.0733
▁아오이	-11.0736
▁찰	-11.0736
안가	-11.0737
닿	-11.0738
▁지났	-11.0738
▁있으니	-11.074
전이	-11.074
데이	-11.0741
▁만났	-11.0741
소장	-11.0742
됬다	-11.0743
우는	-11.0744
아쉽	-11.0748
보길	-11.0748
엿음	-11.0752
▁보고있는	-11.0753
▁있는것	-11.0755
릿	-11.0755
다니는	-11.0756
을수가	-11.0756
▁저기	-11.0757
▁가라	-11.0759
찮	-11.076
영화관에서	-11.0761
▁해주	-11.0761
▁아쉬울	-11.0762
어야지	-11.0763
탱	-11.0763
쩍	-11.0763
늬	-11.0764
퓨	-11.0764
▁ocn	-11.0764
▁멘붕	-11.0764
▁내러티브	-11.0764
▁매트릭스	-11.0764
▁미야자키	-11.0764
▁보냅니다	-11.0764
▁오리지널	-11.0764
▁컨저링	-11.0764
人	-11.0764
긔	-11.0764
뒀	-11.0764
▁저절로	-11.0764
▁귀찮	-11.0764
▁하이킥	-11.0764
▁록키	-11.0764
▁어쩌라고	-11.0764
▁새롭게	-11.0765
▁어울린다	-11.0765
▁재발견	-11.0765
▁간첩	-11.0765
^.^	-11.0765
▁증거	-11.0766
▁잃고	-11.0766
▁보고있어요	-11.0766
▁대표작	-11.0767
▁역쉬	-11.0767
▁절실	-11.0767
▁죽었다	-11.0767
▁보다보다	-11.0767
▁기대됩니다	-11.0769
▁영화관에	-11.077
▁잇는	-11.0771
▁봤다는	-11.0771
▁만들어주세요	-11.0772
칭	-11.0773
야말로	-11.0773
▁비교가	-11.0773
▁잔인하기만	-11.0774
▁원표	-11.0774
▁수애	-11.0774
▁묘미	-11.0775
▁언급	-11.0775
▁나가는	-11.0777
▁말이필요없는	-11.0777
▁실소	-11.0779
▁해도해도	-11.078
▁달고	-11.078
프라	-11.0781
없었	-11.0781
▁있어보이	-11.0781
▁요약	-11.0781
▁고발	-11.0782
ᅩ	-11.0784
▁튀	-11.0784
왔던	-11.0784
낭비	-11.0785
▁담아내	-11.0785
흘리	-11.0786
▁내보내	-11.0786
꼽	-11.0787
▁헐크	-11.0787
▁연장	-11.0787
▁그만좀	-11.0788
걸까요	-11.0789
▁정신을	-11.079
▁어색하다	-11.079
삐	-11.079
▁이나영	-11.0791
첫	-11.0791
▁벨	-11.0791
테러	-11.0792
▁필수	-11.0792
봤다가	-11.0793
OST	-11.0794
급도	-11.0794
▁별로였음	-11.0795
▁잠수함	-11.0796
활	-11.0796
한건가	-11.0798
▁헛웃음만	-11.0798
▁구리다	-11.0798
이하	-11.0801
말아먹	-11.0801
▁주인	-11.0802
로봇	-11.0804
▁미국에서	-11.0804
▁쏙	-11.0805
▁별한개도	-11.0806
마치	-11.0807
▁사망	-11.0807
거예요	-11.0808
▁되돌아	-11.081
▁미국이	-11.0813
전달	-11.0813
▁차이가	-11.0813
▁달콤한	-11.0814
▁다크나이트	-11.0814
▁ᄏᄏᄏᄏᄏᄏᄏᄏᄏᄏᄏᄏᄏᄏ	-11.0814
▁우려먹	-11.0814
수밖에	-11.0815
▁별점을	-11.0816
▁위대함	-11.0816
갈때	-11.0816
▁장애	-11.0817
▁잘했다	-11.0817
나봐요	-11.0817
들보다	-11.0818
그것도	-11.0818
▁없는듯	-11.082
음악이	-11.0821
▁레이첼	-11.0823
▁ᄅᄋ	-11.0823
▁몰랐	-11.0824
->	-11.0826
▁--	-11.0827
▁감독님의	-11.0828
▁인물이	-11.0831
▁http	-11.0832
▁저급	-11.0833
겠는데	-11.0833
맘에	-11.0836
▁조기종영	-11.084
▁뻔히	-11.084
지금까지	-11.0843
▁불만	-11.0845
▁상업	-11.0847
▁몫	-11.0848
▁지리	-11.0852
▁무언가를	-11.0852
▁모르겠는데	-11.0852
▁출연하는	-11.0853
▁웃겼음	-11.0853
▁하이	-11.0854
▁옛다	-11.0855
▁런닝타임	-11.0859
▁기회가	-11.0866
▁말이다	-11.0867
거에	-11.0869
▁녹	-11.087
▁구려	-11.0871
▁재료	-11.0871
▁신선하다	-11.0874
싶네요	-11.0875
▁허접함	-11.0877
▁밀라	-11.0877
불가	-11.0878
▁픽션	-11.0882
▁배울	-11.0885
건만	-11.0885
아프	-11.0887
나왔다	-11.0888
▁않았고	-11.0891
▁화면이	-11.0891
네유	-11.0891
▁어른들이	-11.0891
▁깜	-11.0893
▁안되는데	-11.0894
ᄏᄏᄏᄏᄏᄏᄏᄏᄏᄏᄏᄏᄏ	-11.0894
▁달달한	-11.0896
트가	-11.0896
씬에서	-11.0896
▁걸린	-11.0897
미래를	-11.0897
신선	-11.0897
▁억지스럽	-11.0899
▁가자	-11.0899
▁상상을	-11.09
▁더빙판	-11.0906
▁보시	-11.0912
▁본것	-11.0913
▁비현실적인	-11.0916
황당	-11.0916
지않는다	-11.092
젠	-11.0925
▁당하는	-11.0928
...1	-11.0936
쩔어	-11.0939
▁전작에	-11.0939
▁보소	-11.0939
▁봐야겠다	-11.094
▁때의	-11.0942
▁소름돋는	-11.0944
▁생각하지	-11.0945
▁도망가	-11.0946
▁잼씀	-11.0948
찍은	-11.0953
▁내고	-11.0953
▁지금까지도	-11.0957
▁꿈에	-11.096
나쁜	-11.0963
▁사회에	-11.0964
라스	-11.0964
▁놈이	-11.0964
▁사이에서	-11.0965
▁쩌네	-11.0965
낚	-11.0966
▁모습과	-11.0968
영화자체는	-11.0971
▁꿈꾸	-11.0974
▁복수를	-11.0975
▁생각해서	-11.0977
할정도	-11.0977
▁거냐	-11.0977
늙	-11.0978
▁뛰어넘	-11.098
▁작품성이	-11.0982
▁압도	-11.0982
▁열정이	-11.0983
▁남긴다	-11.0987
▁보느니	-11.0988
재미있는	-11.0988
▁자세	-11.0988
▁감정이입이	-11.099
스러울	-11.099
▁덕에	-11.0993
▁아이와	-11.0995
▁여전	-11.0997
~~!	-11.0998
▁마음속	-11.0999
했어도	-11.1003
▁똑같다	-11.1007
▁애니가	-11.1011
재밋어요	-11.1012
해준다	-11.1015
▁뭔데	-11.1019
빼	-11.1019
▁해적	-11.1021
▁것인지	-11.1023
▁있는거	-11.1024
ol	-11.1025
▁드라마도	-11.1034
▁어울	-11.1036
▁죽을때	-11.1036
▁악평	-11.1037
심리	-11.1039
▁황금	-11.1039
▁얘기가	-11.104
▁웃기네	-11.1041
초딩	-11.1042
▁헛웃음	-11.1043
역으로	-11.1044
기준	-11.1044
부르	-11.1044
겹	-11.1046
▁겉멋	-11.1048
회가	-11.1049
▁성유리	-11.1049
▁아닌가요	-11.1049
아마	-11.1052
별로다	-11.1053
▁안좋아	-11.1054
▁잔잔	-11.1058
인간의	-11.1058
▁검사	-11.1059
하라는	-11.1062
안되는	-11.1063
▁오글거려	-11.1064
도못	-11.1068
뷰	-11.1069
반전이	-11.1069
▁피곤	-11.1071
뮤	-11.1075
면이	-11.1076
▁계획	-11.1077
▁이스트우드	-11.1077
댕	-11.1077
▁박신양	-11.1077
▁에일리언	-11.1077
▁채플린	-11.1077
▁혹성탈출	-11.1077
뚜	-11.1077
▁나타내	-11.1077
씁니다	-11.1077
▁관람불가	-11.1077
▁경쾌	-11.1077
▁맞춘	-11.1078
재밋게	-11.1078
▁언론	-11.1078
▁그들만의	-11.1078
▁당최	-11.1078
▁재평가	-11.1079
▁기분좋게	-11.1079
▁고향	-11.1081
▁빨간	-11.1081
▁묘하게	-11.1082
▁무얼	-11.1082
▁신나게	-11.1083
▁99	-11.1083
▁많았던	-11.1083
▁창조	-11.1083
▁중요하다	-11.1084
▁심심해서	-11.1084
부턴	-11.1084
▁썼다	-11.1085
연애	-11.1085
있다는	-11.1088
▁일베	-11.1089
▁느낌이랄까	-11.1089
▁불편하다	-11.1089
찍고	-11.109
▁지금껏	-11.109
▁볼만했음	-11.109
▁알수없는	-11.1091
▁졸면서	-11.1092
▁속아서	-11.1092
▁마녀	-11.1092
시리즈중	-11.1092
▁이번엔	-11.1092
▁노는	-11.1093
▁멋있어요	-11.1094
▁느리고	-11.1095
▁낮음	-11.1096
▁허술하다	-11.1096
▁마초	-11.1097
▁주체	-11.1099
▁위트	-11.1099
▁꼽을	-11.1099
▁말아라	-11.11
▁인터스텔라	-11.11
▁슬래셔	-11.11
계를	-11.11
무서운	-11.1101
▁저급한	-11.1103
▁일생	-11.1104
▁아쉽네	-11.1104
▁안다	-11.1104
▁총질	-11.1105
타령	-11.1105
▁안타깝고	-11.1105
▁만드네요	-11.1106
히어로	-11.1108
▁KBS	-11.1109
▁미이라	-11.111
▁안든다	-11.111
▁곳에서	-11.111
쿵	-11.111
▁몇개	-11.1111
▁만들려	-11.1112
▁적절히	-11.1112
깍	-11.1112
▁봐줄	-11.1113
▁거울	-11.1113
▁재미가없다	-11.1114
▁작위적인	-11.1114
▁묻어나는	-11.1114
▁뻔하지만	-11.1115
봤더니	-11.1116
▁좋아지는	-11.1116
괜히	-11.1117
▁만들겠다	-11.1117
바닥	-11.1118
▁오타쿠	-11.1118
▁불면증	-11.1118
▁안에서	-11.1118
▁2010	-11.1118
철학	-11.1119
▁국어책	-11.112
▁씁쓸한	-11.112
▁생각하며	-11.112
▁할지	-11.1121
▁지내	-11.1121
▁화려함	-11.1124
▁케이지	-11.1124
▁혐오	-11.1125
여성	-11.1125
▁몽환적인	-11.1126
▁미치도록	-11.1128
▁홍금보	-11.1128
▁많네요	-11.1129
재미가	-11.113
▁유아인	-11.1131
▁잘만들어진	-11.1131
▁모든것을	-11.1131
▁메인	-11.1131
주제	-11.1133
마음에	-11.1134
▁있었다니	-11.1135
▁아니죠	-11.1138
▁욕하는	-11.1138
볼수있	-11.1139
재미없는	-11.1141
▁잃었다	-11.1142
▁아까웠던	-11.1143
▁낸	-11.1144
▁떨어진	-11.1144
▁인간들이	-11.1145
대한	-11.1146
그림	-11.1147
▁패턴	-11.1147
아이돌	-11.1148
▁꿈이	-11.1149
키스	-11.1151
▁장나라	-11.1154
▁엉엉	-11.1156
▁검은	-11.1158
하트	-11.1159
▁충실한	-11.1162
▁아니겠지	-11.1163
이뻐	-11.1164
▁섭외	-11.1165
ch	-11.1166
▁청춘의	-11.1167
▁재밌지도	-11.1167
▁존중	-11.1169
▁애인	-11.1173
▁단점	-11.1173
▁어찌나	-11.1174
▁스피드	-11.1174
▁감동도없고	-11.1177
다르	-11.1181
▁상영관이	-11.1182
▁스릴러를	-11.1183
▁닮은	-11.1183
▁거부감이	-11.1189
넘들	-11.1189
세여	-11.119
▁도와	-11.119
▁공포영화는	-11.1192
햇던	-11.1195
▁추천해	-11.1195
거여	-11.1197
▁애정	-11.1198
▁넘기	-11.12
▁하여	-11.12
▁공식	-11.12
보이고	-11.1201
애기	-11.1201
▁찌질한	-11.1202
▁계기	-11.1202
▁사나이	-11.1203
▁ᄏᄏᄏᄏᄏᄏᄏᄏᄏᄏᄏᄏᄏ	-11.1203
▁오오	-11.1204
공주	-11.1205
▁뛰	-11.1208
넘어	-11.1208
ᄍᄍᄍ	-11.1209
▁마마	-11.1212
자연	-11.1217
▁하고싶은	-11.1217
하더군요	-11.1218
▁구멍	-11.1222
스러웠다	-11.1223
▁아프고	-11.1223
▁배우만	-11.1225
▁만드나	-11.1227
재미없고	-11.1227
▁영화라면	-11.1228
살에	-11.123
▁좋아하시는	-11.1231
▁뭔가가	-11.1232
▁졸려	-11.1232
▁지나서	-11.1234
티비	-11.1234
▁리뷰를	-11.1235
▁출연자	-11.1236
괴물	-11.1237
▁보나	-11.1238
▁여자친구	-11.1239
시킨다	-11.1239
높아	-11.1239
▁분이	-11.1242
▁나을	-11.1244
▁가을	-11.1247
▁했을	-11.1254
▁한건지	-11.1254
▁시점	-11.1254
▁no	-11.1255
찍어	-11.1257
▁탐	-11.1257
▁대사들이	-11.126
▁남친	-11.1265
▁이해하고	-11.1266
▁죽이네	-11.1267
티가	-11.1268
▁내용으로	-11.127
사기	-11.127
▁현실이다	-11.127
▁처음임	-11.1271
▁상식	-11.1273
▁개봉하는	-11.1275
▁현실성이	-11.128
▁할배	-11.1284
좀비	-11.1284
만원	-11.1287
▁자본	-11.1288
▁세상은	-11.1288
것이지	-11.1291
▁노예	-11.1299
▁수준은	-11.13
하겠지	-11.1303
▁시작한	-11.1306
▁성장영화	-11.1308
▁있겠다	-11.131
▁더럽	-11.131
보다보면	-11.1311
▁치는	-11.1313
▁흡입력	-11.1314
▁미쳤다	-11.1316
관계를	-11.1317
식의	-11.1318
▁싸우	-11.1319
좋아할만한	-11.1325
속으로	-11.1327
객관적으로	-11.1328
▁봤었	-11.1329
▁보는듯	-11.133
▁묵	-11.1331
▁다른사람	-11.1333
▁될수	-11.1333
▁주원	-11.1336
▁비중이	-11.1338
되면서	-11.1339
하기까지	-11.134
▁못된다	-11.1345
어진다	-11.1349
▁누님	-11.1351
믄	-11.1352
▁바뀌는	-11.1355
▁me	-11.1355
▁도통	-11.1359
▁보러가	-11.136
하든	-11.1363
었을	-11.1367
▁생각했다	-11.1367
▁반전의	-11.1367
▁얘	-11.1368
깝	-11.1368
▁남편이	-11.1371
▁시나리오에	-11.1372
▁뗄	-11.1374
▁저주	-11.1376
▁기대에	-11.1378
모습을	-11.1378
왓	-11.138
▁영화랑	-11.138
쇄	-11.1381
▁하던	-11.1381
들한테	-11.1382
▁성룡영화	-11.1386
▁먹을	-11.1387
▁개잼	-11.1394
▁모독	-11.1394
텔	-11.1394
됐음	-11.1394
▁한사람	-11.1394
밖엔	-11.1397
▁첨이네	-11.1397
읍	-11.1398
콤	-11.1398
▁두근두근	-11.1399
▁스콧	-11.1399
▁있었나	-11.1399
ᄎ	-11.1399
뚱	-11.1399
웟	-11.1399
쯔	-11.1399
웰	-11.1399
▁가볍고	-11.1399
▁맙시다	-11.1399
▁역사왜곡	-11.1399
▁콘서트	-11.1399
▁클린트	-11.1399
쌀	-11.1399
▁어설픔	-11.1399
▁탕웨이	-11.1399
▁나발이고	-11.1399
▁오그라든다	-11.1399
▁사다코	-11.1399
▁담아낸	-11.14
▁결합	-11.14
▁용가리	-11.1401
▁느껴지	-11.1402
▁과잉	-11.1402
▁이름값	-11.1402
▁웬만한	-11.1402
묵직한	-11.1402
▁감동적이었습니다	-11.1403
되지않	-11.1403
▁위하여	-11.1403
▁따뜻하게	-11.1404
▁덮	-11.1404
▁봤었던	-11.1405
▁치열	-11.1405
▁차원이	-11.1405
▁깔끔하게	-11.1405
▁멋있었다	-11.1406
▁스릴있고	-11.1407
▁2001	-11.1407
음악도	-11.1407
▁감동받	-11.1407
▁풀었	-11.1408
▁봣다	-11.1411
보고싶어요	-11.1413
▁극장판은	-11.1414
▁이승기	-11.1415
▁잊을수가	-11.1415
▁느꼈던	-11.1415
▁전율	-11.1415
라이트	-11.1415
▁이건좀	-11.1415
▁환	-11.1416
▁울었네요	-11.1416
이군	-11.1416
▁재미없습니다	-11.1418
취향	-11.1418
▁슬퍼서	-11.1419
좋게	-11.142
▁괜찮을	-11.1421
ᄁ	-11.1422
▁녹아	-11.1424
▁결론이	-11.1425
▁못생긴	-11.1425
▁제작된	-11.1426
▁또보고	-11.1427
▁무게감	-11.1429
▁싶은건지	-11.1429
▁재회	-11.143
▁.....	-11.143
▁선전	-11.1431
▁실망스럽다	-11.1431
▁있는가	-11.1433
▁홍진호	-11.1433
같네요	-11.1433
무서워	-11.1434
▁오락성	-11.1434
▁앉아	-11.1437
보나	-11.1437
▁좀비물	-11.1438
해줄	-11.1439
합니까	-11.1439
▁화끈	-11.1439
▁외화	-11.1441
핑	-11.1441
▁잔혹한	-11.1442
▁엑소시스트	-11.1442
액	-11.1443
▁현실의	-11.1443
핵	-11.1444
▁ᄏᄏᄏᄏᄏᄏᄏᄏᄏᄏᄏᄏᄏᄏᄏ	-11.1446
▁콜	-11.1446
▁만나서	-11.1448
▁저것도	-11.1449
▁잔인하	-11.145
마무리	-11.1451
교훈	-11.1452
당하는	-11.1452
▁개나	-11.1453
망작	-11.1455
▁지루하지않고	-11.1455
▁집어넣	-11.1455
햇지만	-11.1455
▁응원합니다	-11.1457
▁서우	-11.1458
▁전세계	-11.1458
이쁘	-11.1459
좋았음	-11.146
중요한	-11.146
▁줄리아	-11.1461
나오면	-11.1461
▁기대감	-11.1463
▁남주가	-11.1465
외로	-11.1466
▁당한	-11.1468
▁머지	-11.147
▁마케팅	-11.1471
▁런닝맨	-11.1471
▁저녁	-11.1472
▁울게	-11.1473
▁계기가	-11.1474
▁땡	-11.1476
▁여정	-11.1477
▁장근석	-11.1481
▁스텝업	-11.1481
▁자아	-11.1485
▁보여줬다	-11.1489
▁낳은	-11.149
▁고질라	-11.1491
꺼라	-11.1491
▁장편	-11.1496
▁미소를	-11.1496
▁보물	-11.1497
▁시간아까움	-11.1497
해줬으면	-11.1498
잔잔한	-11.1503
▁개발	-11.1503
▁하시	-11.1505
▁일드	-11.1506
▁작품인데	-11.1506
▁씨발	-11.1507
브라	-11.1509
▁극한	-11.151
▁첫장면	-11.1512
▁나오게	-11.1512
해놓고	-11.1516
▁전개되는	-11.1516
▁이건진짜	-11.1516
▁썩은	-11.1516
▁팬이라면	-11.1518
▁속편이	-11.1518
좋은데	-11.1521
좋아해서	-11.1521
▁넘은	-11.1523
▁실망한	-11.1523
▁걸어	-11.1525
▁살기	-11.1526
잇엇	-11.1529
▁만화는	-11.1529
▁나이에	-11.1529
등등	-11.1531
정돈	-11.1532
▁같기도	-11.1532
어느	-11.1533
▁총을	-11.1533
떨어지는	-11.1535
▁님들	-11.1539
▁어느것	-11.154
앞으로도	-11.1541
▁이영화에서	-11.1545
▁기어	-11.1547
ri	-11.1548
▁수준급	-11.1548
▁상황에	-11.1548
▁만점을	-11.1549
때까지	-11.155
▁분위기와	-11.1552
좋아서	-11.1554
▁사랑도	-11.1556
▁난해하다	-11.1557
낫다	-11.1564
▁별반개도	-11.1564
▁너무한다	-11.1565
▁잘하네	-11.1569
▁지적	-11.1577
▁두분	-11.158
인영화	-11.1585
▁윤아	-11.1587
볼만한	-11.1588
지않나	-11.1589
▁마을	-11.1591
점정도가	-11.1593
▁가리	-11.1594
▁w	-11.1595
하나도	-11.1595
주기도	-11.1599
영화에서	-11.16
▁분노가	-11.16
▁영화같은	-11.1601
▁중후반	-11.1602
▁작품성은	-11.1602
▁고로	-11.1606
남편	-11.1607
▁말하지	-11.1607
▁있다는게	-11.1609
기분이	-11.1609
▁밑에분	-11.1611
▁깍	-11.1616
특별	-11.1619
▁정체	-11.1621
▁서로를	-11.1622
▁활	-11.1624
▁지루하지만	-11.1626
치면	-11.1627
70	-11.1627
몇번이고	-11.1629
▁표현하는	-11.1632
▁증명	-11.1633
▁싶네	-11.1633
▁징	-11.1634
▁나오는지	-11.1636
▁집안	-11.1636
최고의영화	-11.1638
▁아깝다는	-11.164
최악의영화	-11.1641
▁높은거	-11.1642
▁제작한	-11.1642
▁사랑이란	-11.1643
▁진보	-11.1643
기보단	-11.1644
개를	-11.1645
▁귀여	-11.1649
id	-11.165
간지	-11.1655
법한	-11.1655
▁없을까	-11.1661
▁해야하나	-11.1661
▁상황에서	-11.1661
▁온다	-11.1662
과정을	-11.1663
▁태도	-11.1665
않았다	-11.1665
▁다문화	-11.1668
먹었	-11.1671
미안	-11.1672
▁평론	-11.1673
▁반응	-11.1674
친구들	-11.1679
정보	-11.1682
선생	-11.1684
▁질리	-11.1687
▁망쳐	-11.1688
▁드라마보다	-11.169
오고	-11.169
▁방황	-11.169
▁외계인이	-11.1691
▁날로	-11.1694
점입니다	-11.1695
▁자라	-11.1699
▁훈훈	-11.17
▁그런건	-11.1701
렬	-11.1701
▁차지	-11.1702
▁해놓고	-11.1703
▁멍청	-11.1703
▁실화라니	-11.1704
잔아	-11.1709
가자	-11.1709
▁못잡	-11.1711
▁피터	-11.1711
▁맛에	-11.1711
니가	-11.1712
섯	-11.1714
연기자	-11.1714
유쾌	-11.1717
해줌	-11.1719
헝	-11.172
넘게	-11.1721
릉	-11.1722
▁솔까	-11.1724
▁보고서	-11.1724
R	-11.1724
▁선사	-11.1725
첩	-11.1731
Y	-11.1731
쿡	-11.1732
상실	-11.1732
▁제작진들	-11.1732
▁소름끼친다	-11.1733
▁신현준	-11.1733
▁양조위	-11.1733
▁휴머니즘	-11.1733
▁뭡니까	-11.1733
▁충무로	-11.1733
깁	-11.1733
▁정재영	-11.1733
▁침묵	-11.1733
▁어떨까	-11.1733
▁몬스터	-11.1733
▁전문성우	-11.1733
▁불필요한	-11.1733
▁황홀	-11.1733
▁레이싱	-11.1733
▁어려울	-11.1734
▁자칫	-11.1734
▁에로틱	-11.1734
▁촌스러운	-11.1734
▁꺼버렸다	-11.1734
▁0.5	-11.1734
▁오싹	-11.1735
▁뭔내용인지	-11.1736
▁신파극	-11.1736
▁느꼈습니다	-11.1737
▁아름다웠던	-11.1738
▁정도껏	-11.1739
쉽	-11.174
▁처참	-11.1741
▁말에	-11.1742
▁유아용	-11.1743
▁와이어	-11.1744
▁다를게	-11.1744
▁보석	-11.1744
▁호평	-11.1745
▁내겐	-11.1746
▁생각나네	-11.1746
▁허무하다	-11.1748
▁졸려서	-11.1749
▁나았다	-11.175
되길	-11.175
▁소문	-11.1752
▁한계가	-11.1754
대작	-11.1754
할게요	-11.1755
▁솔직	-11.1757
때가	-11.1757
▁리암니슨	-11.1757
▁사람으로	-11.1759
▁볼만하네요	-11.176
▁거대한	-11.1761
▁+1	-11.1762
아까워	-11.1763
답지	-11.1763
이딴	-11.1764
▁공감되는	-11.1765
▁교감	-11.1766
▁지대로	-11.1771
▁가능성	-11.1771
▁이념	-11.1774
▁늘어	-11.1775
▁유치하지만	-11.1776
▁보는줄	-11.1777
▁강혜정	-11.1777
▁음모	-11.1779
▁씨네	-11.1779
▁욕구	-11.178
▁힘든데	-11.1781
▁연상	-11.1781
▁어수선하	-11.1783
▁웃겨요	-11.1783
▁졸았다	-11.1785
티비에서	-11.1786
봤었는데	-11.1787
▁강호동	-11.1787
지경	-11.1787
▁심사위원	-11.1787
▁여자들의	-11.1788
ᅳᅮ	-11.1788
▁부여	-11.1788
땜시	-11.1789
60	-11.1789
H	-11.179
ery	-11.1791
▁다섯	-11.1792
낳	-11.1792
캬	-11.1793
훨씬	-11.1795
섹스	-11.1796
▁개인적으론	-11.1797
▁촬영기법	-11.1798
안좋	-11.1798
항상	-11.18
▁실망했다	-11.1803
▁순위	-11.1803
▁돈도	-11.1804
▁하는건	-11.1806
▁남주인공	-11.1807
▁코스프레	-11.1807
▁믿을수	-11.1807
영환데	-11.1809
▁재밌게봤음	-11.181
▁아니었음	-11.1811
옆에서	-11.1812
▁음악에	-11.1812
▁억지스럽다	-11.1812
이번	-11.1813
▁이어지	-11.1813
▁일본식	-11.1817
▁이순신	-11.1817
어디서	-11.1818
앞에	-11.1819
죽고	-11.182
혔	-11.182
▁별다른	-11.1821
하고픈	-11.1824
▁재미있던데	-11.1826
▁맞게	-11.1826
▁시간때우기	-11.1827
등장	-11.1828
▁진행이	-11.1829
▁깔끔	-11.1829
▁부탁	-11.1831
▁병원	-11.1835
▁꼬맹이	-11.1837
하하하	-11.1837
재밌는데	-11.1838
▁자극하는	-11.184
이었다면	-11.1841
▁평소에	-11.1841
▁기분만	-11.1848
해버린	-11.1849
▁내스타일	-11.1851
▁왕자	-11.1852
▁했어야	-11.1853
재밌네요	-11.1853
베르	-11.1853
▁주제로	-11.1855
범인	-11.1855
▁하는건지	-11.1856
시장	-11.1862
▁모냐	-11.1862
▁500	-11.1868
▁끝날때까지	-11.1869
▁오늘도	-11.1873
못한다	-11.1873
▁날라	-11.1874
▁스릴러가	-11.1874
▁느끼지	-11.1876
아니야	-11.1878
버려서	-11.1878
▁사람들도	-11.1882
▁안하는데	-11.1883
▁둘의	-11.1883
▁민망한	-11.1883
삶은	-11.1884
부부	-11.1885
▁떠난	-11.1885
▁so	-11.1889
▁h	-11.189
▁이따구	-11.189
▁인간들은	-11.1893
▁앞부분	-11.1895
▁말한다	-11.1895
쓴다	-11.1897
▁예술적	-11.1899
▁코믹물	-11.19
▁장르는	-11.1901
▁다같이	-11.1902
▁봐주	-11.1904
▁먹어	-11.1906
▁팔아먹	-11.1909
점드립니다	-11.191
리아	-11.191
▁냄새	-11.1912
깐	-11.1913
▁사기꾼	-11.1915
써요	-11.1922
었다고	-11.1923
▁안난다	-11.193
미스	-11.193
아닌듯	-11.1933
▁미국영화	-11.1933
▁떠오르	-11.1934
▁환불	-11.1934
만하고	-11.1937
▁롤	-11.1937
▁식으로	-11.1939
데다가	-11.1939
▁되기	-11.1941
▁행위	-11.1942
▁겁니다	-11.1942
ut	-11.1946
▁꼽	-11.1946
미니	-11.1949
▁호흡	-11.1951
점드림	-11.1954
▁반개	-11.1954
수준의	-11.1955
▁좋아하게	-11.1955
출신	-11.1957
▁좋구	-11.1958
▁수사	-11.1962
▁봤어	-11.1963
▁포스터는	-11.1963
▁막히	-11.1966
▁영화들이	-11.1966
▁우리네	-11.1967
▁명작이라	-11.1968
▁도움	-11.1969
▁원인	-11.197
▁못보고	-11.1971
룡	-11.1973
▁진화	-11.1975
▁벗어	-11.1976
▁놓	-11.1981
▁건질	-11.1982
▁마시	-11.1984
▁미인	-11.1985
▁예수님	-11.1989
났던	-11.1989
▁넘겨	-11.1989
▁물어	-11.1991
▁꺼져	-11.1991
놨다	-11.1999
▁우리집	-11.2
▁잘해서	-11.2001
이영화를	-11.2001
없으면	-11.2004
!!!!!!!!!	-11.2004
▁하려고	-11.2004
대상	-11.2005
▁될것	-11.2006
▁배우로	-11.2009
▁댄스	-11.201
금을	-11.2012
▁줬다	-11.2012
▁오로라	-11.2013
▁베리	-11.2015
▁깨달음	-11.2015
험	-11.2015
▁끝나지	-11.2017
영화이다	-11.2017
▁산다	-11.202
▁보자고	-11.2023
▁아까웠	-11.2024
네용	-11.2026
▁만드	-11.2026
광수	-11.2028
▁어색하지	-11.2029
시죠	-11.2032
▁낚이지	-11.2034
국가	-11.2035
▁끝났다	-11.2035
▁영화인거	-11.2037
급으로	-11.2038
▁아닌거	-11.2039
▁살인을	-11.204
기만하고	-11.204
▁본성	-11.2052
겠군	-11.2052
▁적절	-11.2052
보다니	-11.2052
▁길고	-11.2053
▁선수	-11.2054
▁아이의	-11.2054
랍	-11.2061
제국	-11.2061
었죠	-11.2063
걷	-11.207
장면도	-11.2071
▁]	-11.2072
뜯	-11.2073
▁교훈이	-11.2073
▁일어나는	-11.2073
써서	-11.2073
역할을	-11.2074
랍니다	-11.2075
댓	-11.2076
숭	-11.2077
핀	-11.2077
▁봤으니	-11.2077
▁스탤론	-11.2077
▁인상깊은	-11.2077
닦	-11.2077
안봤으면	-11.2077
탔	-11.2077
햄	-11.2077
▁알맹이	-11.2077
▁무슨내용인지	-11.2077
-0-	-11.2077
▁kbs	-11.2078
▁옹박	-11.2078
▁못미치는	-11.2078
▁박해일	-11.2078
▁흔히	-11.2078
▁콤비	-11.2078
▁에이리언	-11.2078
▁슈렉	-11.2078
▁빵터짐	-11.2078
▁로드무비	-11.2078
▁루이스	-11.2078
▁리즈시절	-11.2078
▁칸	-11.2078
▁새롭고	-11.2078
▁발휘	-11.2079
▁얼른	-11.2079
▁놓친	-11.2079
거같	-11.2079
▁볼거	-11.2079
▁실컷	-11.2079
페이스	-11.2079
▁악몽	-11.2079
▁일반인	-11.2079
▁습작	-11.2079
▁가득찬	-11.2079
▁적나라하	-11.208
▁한정된	-11.208
못할	-11.208
▁첨본다	-11.2081
▁남지	-11.2081
▁선율	-11.2081
선수	-11.2082
▁나중엔	-11.2082
하군요	-11.2082
▁여주의	-11.2082
▁얻을	-11.2082
▁뇌리에	-11.2082
▁억지스러움	-11.2082
▁듣	-11.2084
▁고백	-11.2084
▁생생하게	-11.2084
것다	-11.2084
▁미안하지만	-11.2085
하는걸	-11.2085
▁소유	-11.2086
▁치밀한	-11.2086
▁몰입하면서	-11.2087
▁파악	-11.2087
달리	-11.2089
▁다세포	-11.2089
▁않으	-11.2089
▁울었음	-11.209
▁없었습니다	-11.209
유키	-11.209
▁메세지도	-11.209
...-_-	-11.2091
▁예뻐요	-11.2092
▁사랑스런	-11.2093
▁표본	-11.2093
▁틀어주	-11.2093
▁시원하게	-11.2093
▁저평가된	-11.2095
▁그리운	-11.2095
~10	-11.2095
▁이준기	-11.2097
▁안들어	-11.2097
▁지원	-11.2098
▁때도	-11.2098
ᄏᄏᄏᄏᄏᄏᄏᄏᄏᄏᄏ	-11.2099
번에	-11.21
▁후덜덜	-11.2103
▁왠만해선	-11.2103
▁기준으로	-11.2103
중간	-11.2104
▁명배우들	-11.2105
▁전환	-11.2105
작이라	-11.2105
▁없었지만	-11.2105
씨와	-11.2107
▁넘쳐	-11.2107
▁행동이	-11.2108
▁이야기와	-11.2108
▁무료로	-11.2111
▁역할이	-11.2112
!^^	-11.2112
졌으면	-11.2113
▁잔인하게	-11.2113
▁찰리	-11.2113
▁결과물	-11.2115
▁써야	-11.2116
▁신나는	-11.2116
▁올레티비	-11.2116
▁조직	-11.2117
기때문에	-11.2119
▁비난	-11.212
▁비유	-11.212
▁진부하	-11.212
햇음	-11.212
▁관람가	-11.2121
▁참신하고	-11.2121
▁매년	-11.2121
▁찾았다	-11.2122
▁빅뱅	-11.2123
▁김하늘	-11.2124
▁남자들이	-11.2124
▁이런것	-11.2124
▁서부극	-11.2125
▁의미는	-11.2126
▁끝내주는	-11.2127
▁뭐하냐	-11.2127
▁덕	-11.2128
▁and	-11.2128
감사합니다	-11.2128
액션은	-11.2129
▁감정들	-11.213
▁어떻게든	-11.2134
▁이동욱	-11.2134
것같습니다	-11.2135
데스	-11.2136
맞음	-11.2136
▁이성재	-11.2137
쥬	-11.2138
개의	-11.214
▁공중파	-11.214
웠음	-11.214
▁백미	-11.214
▁엉망이고	-11.2141
인들의	-11.2142
약한	-11.2142
없지만	-11.2143
▁식스센스	-11.2144
더스	-11.2145
▁수작입니다	-11.2145
▁평정	-11.2145
묵	-11.2147
특집	-11.2148
깎	-11.215
터짐	-11.215
때문인지	-11.2151
▁♡	-11.2151
저렇게	-11.2151
▁잃지	-11.2151
오히려	-11.2152
개념	-11.2152
▁잼있었다	-11.2152
▁목숨을	-11.2153
▁냄새가	-11.2153
흥행	-11.2153
▁기대는	-11.2153
이란걸	-11.2154
예고편	-11.2156
실패	-11.2156
▁시청자를	-11.2158
신은	-11.2158
▁드라마에요	-11.216
▁언제쯤	-11.216
▁영화자체가	-11.2162
▁공포영화를	-11.2163
떨어지	-11.2164
▁알고보니	-11.2164
▁스타일의	-11.2167
▁활용	-11.2173
남녀	-11.2173
설마	-11.2175
▁그랬다	-11.2177
페이지	-11.2178
짜증난다	-11.218
is	-11.218
▁미션	-11.2181
볼수있는	-11.2181
관이	-11.2183
께서	-11.2184
▁쉣	-11.2185
▁너무좋아	-11.2185
▁불과	-11.2187
▁새로	-11.2189
▁마음은	-11.2191
▁서부영화	-11.2191
버스	-11.2195
▁안쓰는데	-11.2196
▁체험	-11.2196
▁만나고	-11.2196
성도	-11.2197
▁못했	-11.2197
▁니들은	-11.2197
▁미리	-11.2199
▁재밌긴	-11.2199
▁해요	-11.22
▁전기	-11.2201
▁영화로서	-11.2202
▁멋있어	-11.2202
▁밀려	-11.2204
갔던	-11.2207
어어	-11.2211
몰라도	-11.2212
▁CGV	-11.2218
▁안녕	-11.2219
▁만들기도	-11.2219
▁야이	-11.222
▁슬프게	-11.2222
▁크고	-11.2222
뒤로	-11.2227
두번	-11.2227
▁턱	-11.2227
▁갱	-11.2228
▁진짜진짜	-11.223
▁빠져들어	-11.223
인증	-11.2232
시지	-11.2233
이것도	-11.2234
▁나이트	-11.2234
ll	-11.224
▁몇년이	-11.2242
자꾸	-11.2244
▁되는거	-11.2248
러브	-11.2248
미래	-11.2252
감은	-11.2253
▁아아	-11.226
▁거대	-11.2261
▁하냐	-11.2262
될수	-11.2263
▁잘봤다	-11.2264
만족	-11.2265
때문	-11.2268
행동	-11.2269
돼서	-11.227
한테는	-11.2271
좋아하는데	-11.2271
▁!!!!	-11.2273
▁쳐도	-11.228
▁신비로	-11.2282
▁뛰어나다	-11.2282
ly	-11.2283
▁베이	-11.2287
▁미화하는	-11.2289
디스	-11.2289
갔는데	-11.2293
▁후회하지	-11.2294
▁놈들이	-11.2294
왔는데	-11.2296
단체	-11.2297
▁서기	-11.2297
▁봤다니	-11.2297
200	-11.2297
▁한국영화가	-11.23
▁타이	-11.231
본게	-11.2318
▁영화계	-11.2318
ᄏᄏᄏᄏᄏᄏᄏᄏᄏᄏ	-11.232
데서	-11.2321
▁뽀	-11.2323
▁지우	-11.2325
▁미치는	-11.2325
▁없는영화	-11.2327
지금도	-11.2327
▁영활	-11.2328
▁붕	-11.2329
있어야	-11.2329
▁볼거리가	-11.2331
▁과거의	-11.2336
▁사라	-11.2337
▁과장되	-11.2341
싫	-11.2343
무라	-11.2344
▁없더라	-11.2351
▁코믹한	-11.2359
▁부각	-11.2362
무지	-11.2363
위를	-11.2364
▁촌스럽지	-11.2365
영화보면서	-11.2365
같았다	-11.2365
▁보여서	-11.2366
▁망치는	-11.2366
하잖아	-11.2366
▁되었	-11.2366
빠진	-11.2368
▁몽	-11.237
▁각각	-11.237
사고	-11.2371
둘이	-11.2375
▁순간이	-11.2377
▁말할수	-11.238
▁없구	-11.238
▁너는	-11.2382
▁보신	-11.2383
심을	-11.2385
▁외에는	-11.2385
하겠네	-11.2385
▁왓	-11.2385
▁해피엔딩이	-11.2386
▁다음에	-11.2386
▁잃었	-11.2386
▁주려고	-11.2388
▁남았	-11.2388
▁알수가	-11.2392
▁재밋어	-11.2395
▁모성애	-11.2398
▁놀라울	-11.2402
럭	-11.2406
▁몰입을	-11.2408
▁당하고	-11.2409
▁일이다	-11.2409
쩔	-11.2413
▁말이지	-11.2419
만들기	-11.242
▁앙	-11.242
▁잘생긴	-11.242
▁->	-11.2422
▁연관	-11.2422
것인지	-11.2423
▁깨알같은	-11.2423
그려	-11.2423
소년	-11.2423
집에	-11.2424
▁가시	-11.2425
▁생각에	-11.2426
▁인기가	-11.2426
홈	-11.2428
랏	-11.2429
ᅲᅲᅲᅲᅲ	-11.243
▁눈빛이	-11.2434
벙	-11.2434
썰	-11.2434
▁원맨쇼	-11.2435
▁찝찝함	-11.2435
도그렇고	-11.2435
naver	-11.2435
ᄑ	-11.2435
▁추악한	-11.2435
▁문근영	-11.2435
▁크루즈	-11.2435
▁유오성	-11.2435
▁빨리감기	-11.2435
▁엠마	-11.2435
▁페이크다큐	-11.2435
▁무의미한	-11.2435
▁조인성	-11.2435
▁단체로	-11.2435
▁건데	-11.2436
▁꺼버림	-11.2436
▁쌍욕	-11.2436
▁my	-11.2436
므로	-11.2436
▁둘째	-11.2436
▁2008	-11.2436
▁미흡	-11.2437
▁끝내준다	-11.2437
▁다시보고싶은	-11.2438
▁맞추기	-11.2438
▁껏다	-11.2438
▁긴박	-11.2438
▁코미디가	-11.2438
▁투표	-11.2438
▁식의	-11.2439
▁지겨운	-11.244
▁적응	-11.244
▁교차	-11.244
▁돋보임	-11.244
▁괴작	-11.244
▁매회	-11.244
▁않았습니다	-11.2441
▁완소	-11.2441
▁추잡	-11.2442
셧	-11.2442
▁떠올리게	-11.2442
▁어느새	-11.2443
▁원빈	-11.2443
만들었	-11.2444
▁무식	-11.2445
▁배경은	-11.2445
▁않았는데	-11.2446
▁넓	-11.2446
▁미치겠다	-11.2446
▁구매	-11.2448
뭐가	-11.2448
▁능가하는	-11.2449
▁일어난	-11.2449
▁볼까	-11.2451
▁사막	-11.2452
▁욕나오는	-11.2452
ma	-11.2452
▁제법	-11.2453
시킴	-11.2453
▁보았지만	-11.2454
열받	-11.2454
▁훌륭했다	-11.2454
▁즐기는	-11.2456
▁난무	-11.2456
▁어째서	-11.2457
▁소피	-11.2457
▁암울한	-11.2461
▁인디	-11.2461
▁듣보잡	-11.2461
▁웨슬리	-11.2461
▁최곱니다	-11.2461
▁크리스토퍼	-11.2461
▁쓰레기라고	-11.2462
▁가는줄	-11.2464
▁분명하다	-11.2464
▁불편하고	-11.2465
▁나에게는	-11.2467
▁흔적이	-11.2467
▁대가리	-11.2467
▁안가고	-11.2468
▁창작	-11.2469
▁괜찮던데	-11.247
엇음	-11.247
▁생각해도	-11.2472
▁한예슬	-11.2472
▁함정	-11.2473
▁구하기	-11.2474
인줄알았는데	-11.2478
하루	-11.2479
▁꼭봐라	-11.248
모자	-11.2482
▁자제	-11.2482
끝에	-11.2483
▁죽을뻔	-11.2483
▁빈약	-11.2484
▁일대기	-11.2485
뿐더러	-11.2486
없을	-11.2487
▁망상	-11.2488
▁관점에서	-11.2488
▁어지간	-11.249
▁질문	-11.2491
▁봐야함	-11.2492
▁미군	-11.2492
▁풀어내	-11.2493
▁황비홍	-11.2493
▁느껴짐	-11.2495
▁낫지	-11.2495
바탕	-11.2498
▁확신	-11.2499
▁개봉하지	-11.2499
▁먹먹함	-11.25
ter	-11.2501
▁화해	-11.2502
휘	-11.2502
▁드러난	-11.2503
▁잠든	-11.2504
▁호러물	-11.2506
▁세계를	-11.2506
▁악플	-11.2507
▁안보는	-11.2507
▁화가난다	-11.2507
닐	-11.2507
▁성의	-11.2507
바보	-11.2509
▁한표	-11.2509
▁탁	-11.2509
을위한	-11.251
▁잘생김	-11.251
낙	-11.2514
찜	-11.2514
▁캐릭터에	-11.2516
▁때리	-11.2516
이여서	-11.2517
▁한달	-11.2517
▁졸업	-11.2518
▁흥행에	-11.2519
농	-11.2519
그거	-11.2519
줄알았	-11.2519
▁납니다	-11.2522
청춘	-11.2522
삘	-11.2524
▁연관성	-11.2525
▁대단함	-11.2527
극장판	-11.2529
▁암이	-11.2529
▁죄송	-11.253
▁비추천	-11.253
자들은	-11.2531
▁멋있음	-11.2533
▁생각하는데	-11.2534
왠지	-11.2534
▁어울리	-11.2537
이었어	-11.2537
하구요	-11.2541
▁얘들	-11.2541
뛰	-11.2545
전설	-11.2547
을위해	-11.255
되는영화	-11.2551
▁이딴영화	-11.2551
▁마구	-11.2552
▁존재가	-11.2554
할때마다	-11.2554
▁낚이	-11.2557
다녀	-11.2558
본영화중에	-11.256
▁이걸보고	-11.256
우울	-11.2561
사람을	-11.2562
오르	-11.2562
▁그외	-11.2563
꼬마	-11.2564
▁없었다면	-11.2565
!!!!!!!!!!!!!!	-11.2568
▁괴물이	-11.257
▁흘러도	-11.2574
▁처음입니다	-11.2576
▁파이팅	-11.2579
▁짠한	-11.258
분간	-11.258
▁많았다	-11.2581
▁역사의	-11.2586
▁하나만	-11.2587
▁24	-11.2588
25	-11.259
▁액션으로	-11.2593
끌고	-11.2594
감동이	-11.2595
▁주말에	-11.2595
미소	-11.2596
세상에	-11.2598
▁연기파	-11.26
▁곱	-11.26
아깝네	-11.2601
드리고	-11.2602
▁티나	-11.2602
보며	-11.2603
더이상	-11.2604
▁약간은	-11.2604
▁수준이다	-11.2605
▁여자와	-11.2607
▁리즈	-11.2607
▁찡한	-11.2608
▁쪼	-11.261
▁못하지만	-11.261
지구	-11.2611
▁내평점	-11.2613
주는게	-11.2614
▁못만들	-11.2615
▁귀에	-11.2615
슬프다	-11.2616
▁고통을	-11.2616
주었다	-11.2621
▁밀어	-11.2622
굿굿	-11.2622
▁책이	-11.2622
▁교수	-11.2622
줬음	-11.2623
▁현장	-11.2624
찍었	-11.2624
▁23	-11.2627
▁할거	-11.2629
로드	-11.2631
될까	-11.2631
▁지는	-11.2632
▁정성	-11.2633
해놓은	-11.2634
▁유쾌함	-11.2636
아아아아	-11.2636
뿐만	-11.2637
▁몸에	-11.2637
배우들도	-11.2641
▁차별	-11.2643
▁쏠쏠	-11.2646
▁싸우고	-11.2647
있으면서	-11.2648
▁웃어	-11.2649
▁각본과	-11.265
▁축	-11.2651
▁보임	-11.2651
▁그것은	-11.2652
▁된다고	-11.2653
것같아서	-11.2653
큼	-11.2655
편견을	-11.2655
모르는	-11.2656
▁동호	-11.2656
▁음악만	-11.2661
구조	-11.2661
무시	-11.2662
▁비하	-11.2662
ne	-11.2663
갖	-11.2664
시켰	-11.2666
▁늙었	-11.2667
안보	-11.267
se	-11.267
보는거	-11.267
▁있는게	-11.2676
▁연기의	-11.2676
▁있겠	-11.268
▁끝나기	-11.2682
모르겠다	-11.2685
▁메이	-11.2687
▁애니로	-11.2687
▁아니라는	-11.2687
▁섬세하	-11.2688
적이지	-11.2698
▁재치있	-11.2698
▁연출한	-11.2703
▁이런드라마	-11.2705
▁임권택	-11.2705
▁터져	-11.2705
▁기억하는	-11.2711
▁죽기	-11.2711
▁중간중간에	-11.2714
▁영감	-11.2719
▁그정도	-11.2721
신기	-11.2726
▁이야기도	-11.2732
▁안봤는데	-11.2733
숨	-11.2733
▁난해하	-11.2735
▁예매	-11.2735
▁음악영화	-11.2738
▁종영	-11.2739
▁돌아가는	-11.2742
▁담아	-11.2743
▁숨이	-11.2744
▁최고라는	-11.2745
▁탄탄하	-11.2746
시대를	-11.2746
▁나쁘진	-11.2747
▁자신들	-11.2749
▁생명	-11.2749
어가는	-11.2751
▁딱딱	-11.2751
▁님	-11.2755
됐지만	-11.2756
▁찍었다	-11.2757
못했다	-11.2757
것들은	-11.2758
▁지나가	-11.276
▁성공한	-11.276
▁배우들만	-11.2762
▁전편에	-11.2764
역겹	-11.2764
▁캐스팅에	-11.2771
▁내취향	-11.2771
▁인연	-11.2772
놈들아	-11.2773
▁칭	-11.2774
▁다루는	-11.2775
▁못하게	-11.2775
▁보고난	-11.2777
▁돌아보	-11.2779
쇠	-11.278
▁장면에	-11.278
쌓	-11.2781
▁너무좋아요	-11.2781
앜	-11.2781
▁줘서	-11.2781
▁치밀하	-11.2782
▁싸이	-11.2783
▁말할것도	-11.2784
▁그가	-11.2785
▁날이	-11.2786
장님	-11.2788
전개가	-11.279
▁강요	-11.2791
▁여기저기	-11.2792
▁담겨	-11.2793
▁각본이	-11.2795
사람도	-11.2797
이였	-11.2801
듦	-11.2802
il	-11.2803
▁고고	-11.2803
뻔했다	-11.2805
졌던	-11.2805
▁페이크	-11.2805
▁브래드	-11.2805
▁스타일리쉬	-11.2805
궈	-11.2805
륵	-11.2805
▁어벤져스	-11.2805
▁엑스트라	-11.2805
욧	-11.2805
뇨	-11.2805
▁덴젤	-11.2805
▁노무현	-11.2805
▁애절한	-11.2805
▁피라냐	-11.2805
▁에너지	-11.2805
▁차가운	-11.2805
▁싱겁	-11.2805
▁큐브	-11.2805
▁지하철	-11.2805
▁나타난	-11.2805
주의자	-11.2805
▁싱	-11.2805
▁떠오른다	-11.2805
▁해리슨	-11.2805
▁스티브	-11.2806
지맙시다	-11.2806
▁즐겁다	-11.2806
▁외로운	-11.2806
▁여진구	-11.2806
▁시청율	-11.2806
▁프레디	-11.2807
▁종합	-11.2807
▁갑갑	-11.2807
.."""	-11.2807
▁효민	-11.2807
▁회복	-11.2808
▁중딩때	-11.2808
▁보면볼수록	-11.2808
▁강제	-11.2808
▁출연료	-11.2809
▁독백	-11.2809
잊혀지	-11.2809
▁타짜	-11.281
▁다행이	-11.281
▁엔딩곡	-11.281
▁키워	-11.2811
▁솔직하게	-11.2812
▁화끈하게	-11.2812
▁할말이없다	-11.2812
▁한지민	-11.2813
▁금방	-11.2813
▁행복해지는	-11.2813
▁급전개	-11.2813
▁아니었으면	-11.2813
▁짧	-11.2814
▁어깨	-11.2814
▁조쉬	-11.2814
▁대단합니다	-11.2817
▁어정쩡	-11.2817
흐흐	-11.2817
드네요	-11.2818
▁자연스럽고	-11.2819
▁나왔습니다	-11.2819
▁넘친다	-11.282
▁슴가	-11.282
▁홀	-11.282
▁이뤄	-11.2821
▁전형	-11.2822
▁이뻐요	-11.2822
▁아니에요	-11.2822
▁완벽히	-11.2822
▁어려서	-11.2822
▁평점좀	-11.2824
▁학	-11.2824
▁로그인하게	-11.2824
▁멋지네요	-11.2825
사상	-11.2825
▁너희	-11.2826
▁개독	-11.2826
▁끝나네	-11.2829
▁몰라서	-11.2831
▁경쟁	-11.2832
▁암살	-11.2832
▁멜깁슨	-11.2833
▁마크	-11.2833
▁최선을	-11.2834
▁극적인	-11.2834
ᅮᅮᅮᅮ	-11.2836
▁못봐주겠다	-11.2837
홍보	-11.2839
줘라	-11.284
글고	-11.2841
▁어려워	-11.2841
▁만들었네요	-11.2843
▁예상치	-11.2843
▁까메오	-11.2844
▁로보캅	-11.2844
▁유치뽕짝	-11.2844
바리	-11.2844
▁눈뜨고	-11.2844
▁좆	-11.2845
▁과한	-11.2846
▁설레임	-11.2846
분보고	-11.2846
▁영화관가서	-11.2847
▁안봤지만	-11.2848
▁전통	-11.2848
▁변명	-11.285
년들	-11.2851
▁평타	-11.2851
비교	-11.2852
▁사연	-11.2854
▁시장	-11.2854
▁한국형	-11.2854
할뻔	-11.2854
▁보지않	-11.2854
낮다	-11.2854
▁허무하고	-11.2856
▁시시한	-11.2858
ra	-11.2858
▁눈만	-11.2859
▁기대합니다	-11.2859
▁있으	-11.286
보게되	-11.286
▁알면서도	-11.286
▁죽어서	-11.2861
▁인상적이다	-11.2861
색이	-11.2862
동이	-11.2864
▁파라노말	-11.2866
▁샤론스톤	-11.2866
▁따듯하	-11.2866
▁가면갈수록	-11.2867
▁얼굴만	-11.2868
▁알바들이	-11.2868
▁배우들로	-11.2869
▁보장	-11.2869
작가가	-11.287
▁후반으로	-11.2872
리얼하게	-11.2874
▁안나와서	-11.2874
▁맞고	-11.2874
▁끼어	-11.2874
▁장쯔이	-11.2877
음에도	-11.2877
▁영구	-11.2879
▁흥해라	-11.2879
부대	-11.288
쿨	-11.288
▁웃기긴	-11.2881
쩜	-11.2881
이드라마	-11.2881
▁납득이	-11.2884
▁달콤	-11.2885
▁영상물	-11.2885
▁강렬하	-11.2885
▁최고라	-11.2886
▁부끄러운	-11.2886
민호	-11.2886
▁도박	-11.2887
▁금요일	-11.2888
심한	-11.289
▁안되네요	-11.2891
▁웃음도	-11.2891
▁무서운거	-11.2891
▁명곡	-11.2891
ᄏᄏᄏᄏᄏᄏᄏᄏᄏᄏᄏᄏ	-11.2891
고생	-11.2895
▁쓰레기가	-11.2895
폴	-11.2895
쉐	-11.2897
뇌	-11.2897
▁코미디로	-11.2898
냄새	-11.2901
훈훈	-11.2901
▁문학	-11.2903
▁죄를	-11.2903
평생	-11.2903
셋	-11.2904
아무튼	-11.2905
그자체	-11.2906
슬픔	-11.2906
뮤지컬	-11.2906
존재	-11.2906
프랑스	-11.2907
▁받지	-11.2907
▁애를	-11.2908
몸매	-11.2908
▁닥터	-11.2909
▁끓	-11.291
보고싶은	-11.291
아아아	-11.2911
보여주는	-11.2911
방법	-11.2912
▁통일	-11.2912
▁연출에	-11.2913
▁벗기	-11.2914
그닥	-11.2915
▁이러니	-11.2915
▁통한	-11.2917
등을	-11.2918
▁진지함	-11.2919
뻔한스토리	-11.292
▁본후	-11.292
감도	-11.2921
무엇보다	-11.2922
▁넘는	-11.2925
보고난후	-11.2926
▁이해는	-11.2927
재밌었다	-11.2928
▁따라서	-11.2929
▁맡	-11.293
▁터졌	-11.2931
어렵	-11.2931
▁내용전개가	-11.2932
▁졸린	-11.2932
▁말았	-11.2934
재미없네	-11.2935
되야	-11.2939
▁나쁜놈	-11.294
포드	-11.2941
▁보시는	-11.2945
▁엄마와	-11.2945
하지않는	-11.2945
여년전	-11.2947
▁보면서도	-11.2948
달러	-11.2948
말이필요없	-11.2948
미녀	-11.2949
싶었다	-11.2951
▁니네	-11.2952
시켰다	-11.2953
해짐	-11.2953
▁뭐죠	-11.2955
알바들	-11.2957
▁빠순이들	-11.296
찾기	-11.2961
슬프고	-11.2961
▁지구를	-11.2962
▁ᄇ	-11.2962
힘든	-11.2963
예전에	-11.2963
지못한	-11.2966
▁드라마였다	-11.297
▁긴장을	-11.2972
▁이런영화에	-11.2972
▁i	-11.2973
▁한국에	-11.2974
졸라	-11.2975
▁사랑스럽	-11.2975
변화	-11.2977
소재로	-11.2978
▁아니란	-11.2978
▁140	-11.2979
▁초딩들	-11.2981
▁깨닫	-11.2982
▁거리가	-11.2982
지훈	-11.2984
거라곤	-11.2987
▁잊어	-11.2988
▁밴드	-11.2988
▁시키는	-11.2989
▁주연으로	-11.2991
쉽게	-11.2991
▁여성의	-11.2991
▁이준	-11.2993
▁아이들을	-11.2993
▁현실적이	-11.2994
▁하차	-11.2994
무섭다	-11.2998
쯧쯧	-11.3002
▁악역이	-11.3003
▁취급	-11.3003
▁쓴다	-11.3004
다니고	-11.3006
▁안봤다	-11.3006
▁나라를	-11.3006
라길래	-11.301
▁드러	-11.301
▁장르에	-11.301
▁동급	-11.3011
▁울리	-11.3011
▁무언가가	-11.3012
재미있고	-11.3012
▁쩌	-11.3012
발이	-11.3013
▁동기	-11.3014
▁있는것도	-11.3015
lt	-11.3018
▁아들과	-11.3019
▁될까	-11.3019
▁망한영화	-11.3019
▁잡은	-11.3021
▁작품의	-11.3022
▁기분좋은	-11.3023
▁구도	-11.3023
ie	-11.3026
▁월드	-11.3027
▁만드는지	-11.303
▁명작인데	-11.303
▁안된다는	-11.303
취향은	-11.3031
영씨	-11.3032
▁보여주려	-11.3032
▁마이너스는	-11.3036
눈에	-11.3039
▁남자들의	-11.3044
▁왔어요	-11.3044
▁강인	-11.3044
▁한때	-11.3044
▁두사람	-11.3045
비슷한	-11.3045
▁마르	-11.3048
라기엔	-11.3049
죽는	-11.305
민주	-11.305
14	-11.305
▁주면	-11.3053
할수밖에	-11.3055
▁성우를	-11.3059
▁색깔	-11.3062
▁이건머	-11.3068
▁인한	-11.3068
▁전작들	-11.3068
▁초기	-11.3068
▁이전에	-11.3069
~!!!!	-11.3072
▁느껴졌	-11.3072
▁서부	-11.3073
▁때리고	-11.3074
▁원작보다	-11.3082
▁알바생	-11.3083
대결	-11.3085
▁육체	-11.3089
맛이	-11.3091
▁기부	-11.3093
하는건데	-11.3095
중에서도	-11.3096
▁쩔었	-11.3099
▁보스	-11.3099
▁얼굴도	-11.3099
▁이야기들	-11.3101
▁보여주기	-11.3101
▁노튼	-11.3102
주고싶다	-11.3103
편보단	-11.3105
▁되길	-11.3107
▁납득	-11.3108
하시네요	-11.3108
▁눈과	-11.3109
▁97	-11.3111
▁개미	-11.3111
▁심리묘사	-11.3118
것두	-11.3121
▁시나리오는	-11.3128
줄알았다	-11.3129
씩이나	-11.313
?????	-11.3131
▁이라는	-11.3131
감동을	-11.3132
▁웅장	-11.3132
▁타이틀	-11.3132
외엔	-11.3133
던데요	-11.3139
화를	-11.3142
▁발견한	-11.3143
^^;;	-11.3144
▁졸업작품	-11.3146
▁봤다고	-11.3148
갖고	-11.3149
해야겠다	-11.315
13	-11.315
▁뮤직비디오	-11.3151
▁드라마임	-11.3152
릴때	-11.3156
▁볼수가	-11.3158
놔	-11.3159
▁본인이	-11.316
▁정서에	-11.316
▁다니	-11.3162
▁노래만	-11.3164
▁아쉬워	-11.3166
게아니라	-11.3166
지난	-11.3167
▁모양	-11.3169
▁잘된	-11.3169
영화지만	-11.3169
작은	-11.317
▁못볼	-11.3171
▁엽기	-11.3172
▁눈물도	-11.3175
엉성	-11.3175
▁장난이	-11.3179
▁ᅵ	-11.3179
▁때문이	-11.318
▁짙	-11.3183
만든다	-11.3184
뢰	-11.3187
▁믿겨지지	-11.3188
끗	-11.3189
룸	-11.3189
#	-11.319
▁OCN	-11.319
▁어땠을까	-11.319
▁엄태웅	-11.319
▁옴니버스	-11.319
▁톰행크스	-11.319
▁핸드폰	-11.319
쨩	-11.319
·	-11.319
▁아날로그	-11.319
▁주옥같은	-11.319
▁보기드문	-11.319
▁마피아	-11.319
▁다녀온	-11.319
▁모습도	-11.319
▁좌파	-11.319
▁압박	-11.319
▁잃어	-11.319
▁아쉬웠다	-11.319
▁괜춘	-11.319
▁토이스토리	-11.319
▁재해석	-11.319
▁알겠으나	-11.319
▁love	-11.319
▁탐욕	-11.3191
▁멋집니다	-11.3191
▁서서히	-11.3191
▁유치원생	-11.3191
생겻	-11.3191
싶은데	-11.3191
▁가만히	-11.3192
▁낯선	-11.3192
▁케이트	-11.3192
베리	-11.3192
▁먹먹해지는	-11.3192
▁의심스럽다	-11.3193
▁망했는지	-11.3193
▁반성해라	-11.3194
지말아야	-11.3194
▁몰래	-11.3194
▁거슬린다	-11.3195
▁반지의	-11.3195
▁벌어지는	-11.3196
▁이랬	-11.3197
▁실종	-11.3197
▁볼거리도	-11.3197
▁일방적	-11.3198
▁풀어가는	-11.32
▁담담하게	-11.32
▁관대하다	-11.3201
▁짐작	-11.3201
▁질질끄는	-11.3203
사라	-11.3203
▁도입부	-11.3204
▁극단적인	-11.3205
▁하필	-11.3205
▁연민	-11.3205
▁동참	-11.3206
▁더럽게없다	-11.3208
▁`	-11.3208
▁데이	-11.3208
▁동경	-11.3209
▁이룬	-11.3209
▁재미없었던	-11.321
▁매력있	-11.321
▁유쾌하다	-11.3212
▁아역배우	-11.3212
▁실망스러운	-11.3212
▁물론이고	-11.3213
▁개봉했을때	-11.3214
▁98	-11.3214
▁우디	-11.3216
▁영화인데도	-11.3216
▁볼만하	-11.3216
니당	-11.3216
마져	-11.3218
시청	-11.3219
크로	-11.3222
▁괜찮았고	-11.3225
▁높냐	-11.3225
영화제	-11.3228
▁시바	-11.3229
▁bb	-11.3229
▁밝은	-11.3232
생각해보면	-11.3233
년이나	-11.3234
▁지배	-11.3234
▁된게	-11.3234
▁휴가	-11.3235
▁사실적인	-11.3235
?""""	-11.3235
▁고래	-11.3235
▁따른	-11.3236
▁찍어라	-11.3236
▁피트	-11.3236
▁있었을까	-11.3237
▁만들었던	-11.3239
▁신들린	-11.324
▁철없는	-11.324
▁로렌스	-11.3241
▁토마스	-11.3241
▁줄리엣	-11.3241
▁최대한	-11.3242
▁호러영화	-11.3243
▁끔찍한	-11.3243
놔서	-11.3244
▁심했다	-11.3246
▁깨달았다	-11.3246
▁빛나	-11.3247
▁기독교인	-11.3249
▁생각지도	-11.325
▁감동감동	-11.325
▁누르	-11.3251
▁심해	-11.3252
▁설렘	-11.3253
▁빡쳐서	-11.3253
▁조선족	-11.3254
것같고	-11.3255
먹으면서	-11.3256
▁암시	-11.3257
▁극장서	-11.3257
잇다	-11.3257
▁안되요	-11.3258
토리	-11.3259
▁격투	-11.3261
쳐먹	-11.3263
▁알아서	-11.3268
찾	-11.3268
▁주지훈	-11.3269
그렇지	-11.3269
▁기다리고	-11.327
▁쯤	-11.3272
그의	-11.3272
▁다가오는	-11.3272
새롭	-11.3273
보라고	-11.3275
스티	-11.3275
본질을	-11.3276
▁뼈	-11.3276
▁디자인	-11.3276
더럽게	-11.3277
▁무섭지도않고	-11.3278
▁설레는	-11.3279
는거냐	-11.3279
▁만큼은	-11.3282
▁이게뭐야	-11.3282
▁굴	-11.3283
조금이라도	-11.3283
모양	-11.3283
▁내눈	-11.3283
장면을	-11.3284
▁묘	-11.3285
▁현빈	-11.329
▁인상적이	-11.3294
▁이게왜	-11.3294
윈	-11.3294
채널	-11.3295
▁리얼한	-11.3295
▁때우기	-11.3297
붕	-11.3299
U	-11.3299
기억이	-11.3299
▁안맞고	-11.33
▁활약	-11.33
띠	-11.33
▁분석	-11.3301
젖	-11.3303
끊	-11.3304
▁복수가	-11.3305
짠	-11.3305
[	-11.3305
꽝	-11.3306
▁폼	-11.3307
vs	-11.3307
꽤	-11.3307
이었다는	-11.3311
▁잭슨	-11.3311
영활	-11.3311
▁질투	-11.3311
▁오류	-11.3311
▁한편으로	-11.3311
엉망	-11.3313
▁짱이에요	-11.3313
듣는	-11.3313
▁모두에게	-11.3314
웠던	-11.3315
제작진	-11.3319
▁최악입니다	-11.3319
감동적이고	-11.3319
▁동정	-11.3321
▁울나라	-11.3322
▁안나오나	-11.3322
▁퀸	-11.3322
▁브래드피트	-11.3327
보고있는데	-11.3328
▁참신함	-11.3329
스틴	-11.3331
▁괴수	-11.3331
영화인줄	-11.3331
▁짱입니다	-11.3332
▁수위	-11.3334
▁대비	-11.3334
▁조용한	-11.3337
먹어	-11.3338
▁가네요	-11.3338
는뎅	-11.3343
▁당신을	-11.3343
▁어처구니가	-11.3344
▁배운	-11.3344
보느니	-11.3345
들이다	-11.3347
▁이상도	-11.3347
▁웃기기도	-11.3347
▁감독님이	-11.3351
주시길	-11.3352
사랑해	-11.3352
소리가	-11.3352
▁반전까지	-11.3354
▁하시는	-11.3354
졌어요	-11.3356
▁그나저나	-11.3357
▁역활	-11.3358
▁극장판이	-11.3359
할수있다	-11.3359
▁했었는데	-11.336
▁이름으로	-11.3361
▁포장한	-11.3361
▁드리	-11.3361
남자가	-11.3361
되네	-11.3362
▁볼껄	-11.3362
▁그땐	-11.3363
누님	-11.3364
▁보이네요	-11.3365
져야	-11.3367
▁거부감	-11.3368
▁지성	-11.3369
멋있	-11.337
나왓	-11.337
▁짝	-11.337
호가	-11.3371
댐	-11.3371
▁악의	-11.3371
나오는거	-11.3372
▁중에서도	-11.3373
모드	-11.3373
졌습니다	-11.3375
라기	-11.3379
당하고	-11.3382
보겠다	-11.3384
전체	-11.3384
수가없다	-11.3385
분에	-11.3388
들었다	-11.3388
▁천재다	-11.339
▁낼	-11.3392
것임	-11.3394
▁눈물나	-11.3398
▁후에도	-11.3398
▁포기한	-11.34
▁훈훈하	-11.3401
편만	-11.3403
않아서	-11.3404
▁찌질이	-11.3404
약함	-11.3408
▁피디	-11.3409
성인	-11.3414
▁넣은	-11.3415
▁슬펐	-11.3416
▁감정의	-11.3417
고싶어	-11.3418
▁사라지	-11.3419
▁욕할	-11.342
▁그러지	-11.342
대중	-11.3422
▁이감독	-11.3424
▁좋아라	-11.3424
보았다	-11.3425
▁한국인들	-11.3427
오글	-11.3428
▁방식이	-11.343
▁하드	-11.343
▁네가	-11.3432
▁액션씬이	-11.3432
▁비극적	-11.3433
▁정상	-11.3434
나보네	-11.3435
▁말하기	-11.3437
했으니	-11.3439
▁건진	-11.344
▁투성이	-11.3442
▁대만	-11.3443
▁없는것	-11.3443
▁했다면	-11.3447
▁짤	-11.3451
말로	-11.3454
▁우리와	-11.3459
했기에	-11.346
해졌다	-11.3462
▁환상의	-11.3463
인건지	-11.3463
▁go	-11.3463
▁기대보다	-11.3464
▁기대치	-11.3464
▁루즈하	-11.3469
점이라도	-11.3469
▁관리	-11.347
▁보네요	-11.347
뻐	-11.3471
에효	-11.3472
생각하게	-11.3473
혀서	-11.3473
으라고	-11.3474
▁작품이라고	-11.3474
▁발생	-11.3475
▁그시대	-11.3475
메시지를	-11.3477
▁바람피	-11.3484
▁건물	-11.3484
이였는데	-11.3494
▁상상력을	-11.3495
해야하나	-11.3499
▁스케일도	-11.3502
입장	-11.3503
▁옴	-11.3504
점이면	-11.3504
▁이만큼	-11.3507
▁터짐	-11.3512
하다못해	-11.3512
▁한국말	-11.3513
만세	-11.3513
꿀	-11.3518
▁떨어졌	-11.3518
▁나와라	-11.3519
스토리를	-11.3519
▁울림	-11.352
▁못하나	-11.3525
▁소리를	-11.3528
▁표현해	-11.3537
▁들여	-11.354
이런걸	-11.354
▁이작품	-11.3541
▁강시	-11.3542
▁피로	-11.3543
▁한국식	-11.3546
비슷	-11.3549
▁수정	-11.3549
▁재미난	-11.355
보는것	-11.3552
sh	-11.3553
▁귀가	-11.3554
점이지	-11.3558
덧	-11.3559
▁소소하	-11.3561
▁예의	-11.3562
▁써라	-11.3566
돼지	-11.3571
▁N	-11.3571
되요	-11.3574
▁한국은	-11.3574
하셔서	-11.3574
▁억	-11.3575
▁그림이	-11.3576
▁되냐	-11.3576
회장	-11.3576
▁바보가	-11.3576
는건데	-11.3577
▁없다면	-11.3577
뭐하러	-11.3578
이상한	-11.3579
보냐	-11.3579
▁경찰이	-11.3579
▁합시다	-11.3582
가끔	-11.3582
▁아픔이	-11.3583
흡	-11.3583
▁대작이	-11.3583
▁코믹연기	-11.3584
▁구역질	-11.3584
▁푸른	-11.3584
▁흉내내	-11.3586
▁그래픽도	-11.3586
▁모두다	-11.3587
▁뒤통수	-11.3588
퀄	-11.3588
뻑	-11.3588
▁정답	-11.3589
듀	-11.359
ᅭ	-11.359
’	-11.359
▁쌍팔년도	-11.359
▁후유증	-11.359
씽	-11.359
퍽	-11.359
▁아팠다	-11.359
▁어중간한	-11.359
▁캐서린	-11.359
▁장만옥	-11.359
▁기괴한	-11.359
▁정유미	-11.359
▁손꼽히는	-11.359
▁어디선가	-11.359
▁김수로	-11.359
▁맥라이언	-11.359
▁테론	-11.359
▁슈스케	-11.359
랍시고	-11.359
▁민주주의	-11.359
▁어떨지	-11.359
▁쾌감	-11.359
▁브루스윌리스	-11.359
▁씹노잼	-11.3591
▁다르겠지만	-11.3591
▁피터팬	-11.3592
▁아이리스	-11.3592
▁느린	-11.3593
▁하얀	-11.3593
▁성괴	-11.3593
▁감동적이었어요	-11.3593
테이프	-11.3593
▁MC	-11.3593
으려나	-11.3593
하자마자	-11.3593
▁리암	-11.3593
▁잔잔히	-11.3594
▁노출이	-11.3594
▁따듯한	-11.3594
▁린치	-11.3595
▁살지	-11.3595
잘하고	-11.3597
▁치명적	-11.3597
▁미치지	-11.3597
▁여자친구랑	-11.3598
▁절제	-11.3599
▁연계	-11.3599
▁일본애니	-11.3599
평이	-11.3599
▁고마워요	-11.36
▁120	-11.3601
라는거	-11.3601
▁초등학생때	-11.3601
▁풋풋하고	-11.3602
▁모르겠어요	-11.3603
▁싫음	-11.3603
▁오랜만이다	-11.3604
▁황제	-11.3604
▁부담	-11.3605
▁대하여	-11.3607
▁관계가	-11.3608
▁잘보고	-11.3609
▁팬이라서	-11.3609
▁신기하다	-11.361
▁밋밋하고	-11.3611
▁해학	-11.3611
탄이	-11.3613
▁감동으로	-11.3613
▁조아요	-11.3614
▁2%	-11.3614
하게되는	-11.3614
▁그지없	-11.3615
▁만들었는데	-11.3616
▁틀림없다	-11.3616
하더만	-11.3617
▁돌아온	-11.3617
▁고맙다	-11.3617
▁스크린으로	-11.3617
▁대단하네요	-11.3618
▁핵심	-11.3618
▁전형적	-11.3619
▁어메이징	-11.362
▁정신건강에	-11.362
▁폴워커	-11.362
▁걸레	-11.362
▁촌스럽고	-11.3621
▁비슷하게	-11.3623
▁석	-11.3624
▁외에	-11.3626
▁밝고	-11.3629
▁가깝다	-11.3629
▁보였다	-11.3631
▁하루종일	-11.3632
▁니콜키드먼	-11.3632
▁사춘기	-11.3632
▁한국영화중	-11.3632
▁보네	-11.3632
▁연결이	-11.3633
▁좋아합니다	-11.3633
▁좋아하면	-11.3635
▁시시	-11.3636
▁망함	-11.3636
▁토끼	-11.3637
▁잊혀지지않는	-11.3638
기라도	-11.3639
리오	-11.364
▁1%	-11.364
▁높네요	-11.364
쓰레기다	-11.3641
▁섬세하고	-11.3642
▁숨막히는	-11.3642
▁지루하네요	-11.3642
▁한순간도	-11.3643
▁오토바이	-11.3643
▁이종석	-11.3644
▁등이	-11.3644
▁생겨	-11.3644
▁와닿는다	-11.3645
▁완성도는	-11.3645
▁이민정	-11.3645
▁몇안되는	-11.3646
▁다가온다	-11.3647
▁고소영	-11.3649
우면	-11.3649
co	-11.365
할수없는	-11.3652
▁망쳐놨	-11.3653
▁검색해	-11.3654
▁프레데터	-11.3655
▁조재현	-11.3655
▁어려움	-11.3656
▁최고였음	-11.3656
▁ᄂ	-11.3658
▁진구	-11.3658
▁적어	-11.3658
홍콩	-11.3658
▁생생한	-11.3659
▁공개	-11.366
▁행복했습니다	-11.3663
▁싫어서	-11.3664
개월	-11.3666
▁강추입니다	-11.3667
▁멋있게	-11.3667
▁시스템	-11.3667
주길	-11.367
▁없잖아	-11.3671
▁애국	-11.3671
▁가족끼리	-11.3672
보낸	-11.3673
참고	-11.3673
▁흥미진진하고	-11.3673
▁못생겼	-11.3676
시대의	-11.3677
▁에바	-11.3677
▁//	-11.3678
던거	-11.3679
내시간	-11.3679
▁괜	-11.368
▁김선아	-11.3681
▁동심을	-11.3681
▁감독아	-11.3682
해야만	-11.3682
번씩	-11.3683
▁상관없	-11.3683
예상	-11.3683
▁아쉽게	-11.3683
*^^*	-11.3683
▁아버지와	-11.3684
다고해서	-11.3687
▁꼬라지	-11.3689
마른	-11.369
떡	-11.3691
▁많을	-11.3691
만들면	-11.3692
이라곤	-11.3694
▁말리	-11.3694
▁실화라고	-11.3695
껴	-11.3695
▁좋아함	-11.3697
▁된다면	-11.3697
봣습니다	-11.3698
▁욕하면서	-11.3699
▁이슈	-11.3701
▁약하고	-11.3701
▁사건의	-11.3702
▁감독들	-11.3702
▁재밌었어	-11.3704
▁지루해요	-11.3704
▁감당	-11.3705
분까지	-11.3705
놈들이	-11.3707
▁좋아했는데	-11.3708
▁돌리도	-11.3709
▁칼로	-11.3709
▁남김	-11.3711
허허허	-11.3711
만드네	-11.3712
▁주는거	-11.3714
▁제정신	-11.3714
▁섹	-11.3715
뽀	-11.3716
▁mbc	-11.3716
▁↓	-11.3716
▁왜이럼	-11.3716
▁않으면서	-11.3716
썩	-11.3718
ᅢ	-11.3718
▁실망감	-11.3719
샘	-11.372
▁댓글알바	-11.372
퀄리티	-11.3721
톰	-11.3722
▁연출로	-11.3723
▁대박입니다	-11.3724
▁주변에	-11.3724
▁위로가	-11.3725
1,2	-11.3725
아무것도	-11.3726
▁아담	-11.373
외국	-11.373
▁부실한	-11.3733
▁바보로	-11.3734
중간중간	-11.3735
▁다음편	-11.3736
▁있었어요	-11.3736
▁영화자체	-11.3738
맨날	-11.3739
안나옴	-11.374
아픈	-11.3742
▁기계	-11.3743
명이서	-11.3744
▁냉	-11.3745
왜케	-11.3745
점인데	-11.3746
예전	-11.3746
▁미국에	-11.3747
▁수작임	-11.3747
현재	-11.3748
▁이용해	-11.3748
▁잼있어	-11.375
▁가치관	-11.3751
▁이름만	-11.3752
산업	-11.3754
▁것처럼	-11.3757
▁배우다	-11.3758
▁큰일	-11.3759
센스	-11.3759
▁평가가	-11.3761
가능한	-11.3767
어이없	-11.3769
▁유우	-11.377
▁대가	-11.377
▁강남	-11.3772
재미있어	-11.3772
해야한다	-11.3777
연출력	-11.3778
▁사랑하게	-11.3778
중인데	-11.3779
마음을	-11.3779
▁선생님이	-11.378
▁직장	-11.3782
했던거	-11.3782
아놔	-11.3792
▁붙여	-11.3793
▁없구만	-11.3795
▁죽지	-11.3798
▁드라마인데	-11.3798
▁구할	-11.3798
▁지식	-11.3799
▁저예산영화	-11.3804
▁쓴거	-11.3805
▁공짜	-11.3805
▁킹	-11.3807
▁인종	-11.3808
▁글구	-11.381
▁보호	-11.381
▁흑흑	-11.3813
스코	-11.3814
폐지	-11.382
▁끝으로	-11.382
▁계속해서	-11.3821
일까요	-11.3824
해줘	-11.3825
▁슬픔을	-11.3827
▁쓰레기로	-11.3827
▁넘치고	-11.383
▁살아남	-11.3833
▁무섭다고	-11.3833
ig	-11.3834
▁펜	-11.3836
천국	-11.3836
▁한다면	-11.3837
▁델	-11.3838
▁영화다운	-11.3839
감사	-11.384
쁘	-11.384
▁전국	-11.3842
▁화려하	-11.3843
▁노리	-11.3844
밖	-11.3851
▁드물	-11.3854
먹을	-11.3854
을정도로	-11.3858
영화에요	-11.3858
보지마	-11.386
▁했다는	-11.3864
관을	-11.3865
제목이	-11.3867
나봐	-11.3867
▁저질영화	-11.3868
▁이미지가	-11.3868
기위한	-11.3868
역에	-11.387
해지네요	-11.387
▁아버지를	-11.387
▁늘리	-11.3871
▁ᅢ	-11.3874
했었던	-11.3874
▁끄고	-11.3875
한것도	-11.3875
▁놀랍	-11.3876
▁긴박감	-11.3876
산이	-11.3877
대신	-11.388
벽	-11.388
▁보고싶지	-11.3884
드릴	-11.3885
▁vs	-11.3886
▁아마도	-11.3893
▁막장의	-11.3895
▁존재감	-11.3897
점이라니	-11.3897
▁고생한	-11.3902
영혼을	-11.3902
▁타락	-11.3906
▁장난해	-11.3908
팔이	-11.3909
았어	-11.3909
▁외엔	-11.391
▁불쌍하	-11.3912
▁상큼	-11.3913
▁감독판	-11.3915
할게	-11.3917
▁최고작	-11.3918
▁울어	-11.3918
▁바보들	-11.3918
▁매기	-11.3919
멜	-11.392
▁심심할때	-11.3923
▁보기도	-11.3932
▁한국드라마	-11.3933
▁깍아	-11.3938
▁소녀의	-11.3938
버렸음	-11.3939
▁용서가	-11.3942
과거	-11.3944
?'	-11.3944
▁영향	-11.3944
▁무적	-11.3945
▁그럴듯한	-11.3945
▁뿐만	-11.3947
▁모아놓	-11.3947
듣	-11.3947
▁질질끌	-11.395
▁저때	-11.395
여름	-11.395
▁모두들	-11.3952
▁소설이	-11.3953
▁원제	-11.3955
▁스릴은	-11.3957
▁돌아가고	-11.3959
▁셋	-11.3959
ry	-11.3963
▁흠잡을	-11.3963
몇번	-11.3966
▁빡	-11.397
▁짜내	-11.397
▁주인공도	-11.397
알았	-11.3971
!"""	-11.3973
****	-11.3973
▁몰입감이	-11.3975
▁잔인하지도	-11.3978
▁수십	-11.3978
츄	-11.3978
▁필요는	-11.398
▁영혼이	-11.3981
▁엘리	-11.3981
테니	-11.3981
해낸	-11.3982
벅	-11.3982
저리	-11.3983
▁성숙	-11.3985
되어야	-11.3987
전반	-11.3987
▁기분이다	-11.3989
으리	-11.3991
▁가게	-11.3993
▁여지	-11.3993
편보고	-11.3993
▁이러지	-11.3994
받아서	-11.3994
▁올레	-11.3998
스톤	-11.3998
깃	-11.3999
연출이	-11.4
▁때부터	-11.4
밴	-11.4001
이런영화가	-11.4001
롯	-11.4003
▁맞은	-11.4005
▁으리으리	-11.4005
위원회	-11.4006
텀	-11.4006
햐	-11.4006
▁로버츠	-11.4006
▁맥어보이	-11.4006
▁빈디젤	-11.4006
▁선입견	-11.4006
▁여실히	-11.4006
▁윌스미스	-11.4006
▁이렇다	-11.4006
▁중구난방	-11.4006
▁초콜릿	-11.4006
댔	-11.4006
샌	-11.4006
▁훼손	-11.4006
▁압축	-11.4006
▁좌절	-11.4006
▁천녀유혼	-11.4006
\	-11.4006
▁감사드립니다	-11.4007
▁인상깊었다	-11.4007
▁최진실	-11.4007
▁법칙	-11.4007
▁농락	-11.4007
▁뒤로갈수록	-11.4007
▁사소한	-11.4007
▁모르겠으나	-11.4007
▁베낀	-11.4007
읍니다	-11.4008
▁놀라움	-11.4008
▁오래오래	-11.4008
▁파멸	-11.4008
▁발톱	-11.4008
▁대략	-11.4008
했냐	-11.4008
▁상쾌	-11.4008
▁역부족	-11.4009
▁신은경	-11.4009
▁어쩌고	-11.401
▁목표	-11.401
▁써도	-11.4011
▁그렇다치고	-11.4011
▁따뜻하다	-11.4011
▁필요할까	-11.4012
▁능력이	-11.4012
▁행운	-11.4012
▁괜찮았어요	-11.4013
▁실체	-11.4014
▁배드신	-11.4014
▁명예	-11.4015
▁버티	-11.4015
▁반짝	-11.4015
▁시간여행	-11.4015
▁담겨있는	-11.4015
위로	-11.4016
▁싶어지는	-11.4016
▁돋보였던	-11.4017
▁팬티	-11.4017
▁조커	-11.4019
▁바라며	-11.4019
▁눈물난다	-11.402
▁재미없던데	-11.402
▁따뜻	-11.402
▁욕하고	-11.402
▁불쌍함	-11.4021
▁낚임	-11.4021
▁기술력	-11.4022
시원	-11.4022
▁둘러	-11.4022
▁초등	-11.4022
▁왕따	-11.4023
▁안무섭다	-11.4023
잡는	-11.4023
▁곁에	-11.4025
▁카타르시스	-11.4025
▁그래두	-11.4026
▁산만함	-11.4026
▁화난다	-11.4026
엠씨	-11.4027
▁있었을	-11.4028
▁왜이런	-11.4028
앞	-11.4029
당함	-11.4029
▁볼만하던데	-11.4029
▁신선했다	-11.4029
이라지만	-11.403
▁지루합니다	-11.403
점준거중	-11.403
▁익숙한	-11.4032
▁연출력도	-11.4032
▁극단적	-11.4033
▁괜찮지만	-11.4034
껀데	-11.4034
▁누구냐	-11.4034
비하	-11.4034
▁부재	-11.4035
▁인피니트	-11.4038
▁미키	-11.4038
▁감성적인	-11.4039
▁훈련	-11.4039
▁코미디도	-11.404
▁광해	-11.404
뭐라	-11.4041
▁시간가는	-11.4041
▁그러면	-11.4042
▁최악이었다	-11.4043
▁조디	-11.4044
▁퀴어영화	-11.4045
▁돈아까운	-11.4045
▁재밌겠다	-11.4046
▁나오니	-11.4046
▁남는영화	-11.4046
▁마주	-11.4046
외에는	-11.4047
▁무려	-11.4047
▁쉽	-11.4049
편이나	-11.4049
든데	-11.4049
▁유역비	-11.405
▁서사	-11.405
보세여	-11.4053
▁별반	-11.4054
▁토르	-11.4056
▁기대하면서	-11.4056
16	-11.4057
▁안티	-11.4057
엇던	-11.4058
▁나쁘다	-11.4061
▁없을듯	-11.4062
▁절라	-11.4062
▁걸려	-11.4064
에게서	-11.4064
1990	-11.4065
사랑을	-11.4066
▁죽음의	-11.4066
하여튼	-11.4067
123	-11.4068
▁화장	-11.4068
였으나	-11.4068
▁색감이	-11.4068
▁생각밖에	-11.407
▁식상함	-11.4073
▁블	-11.4073
▁놓치지	-11.4073
▁한건	-11.4074
▁고기	-11.4074
풀이	-11.4075
▁인셉션	-11.4075
▁공효진	-11.4075
▁지진희	-11.4075
▁강하다	-11.4076
▁몰랐던	-11.4077
▁독특함	-11.4078
▁영화보는내내	-11.4078
▁연구	-11.4079
▁만들어내는	-11.4079
▁식상하고	-11.4082
▁디테일한	-11.4082
▁농구	-11.4085
아쉬	-11.4085
했을텐데	-11.4086
▁근육	-11.4088
▁1000	-11.4089
▁관객수	-11.4089
부인	-11.4091
▁위대	-11.4091
▁황당함	-11.4092
중엔	-11.4093
▁보기는	-11.4096
▁생각해볼	-11.4096
▁멜로물	-11.4097
▁생략	-11.4097
▁분들에게	-11.4098
▁남음	-11.4099
▁실력이	-11.4101
착한	-11.4102
이군요	-11.4102
▁이때까지	-11.4102
▁나왔다는	-11.4103
▁대작이다	-11.4104
▁난생	-11.4104
싶어	-11.4105
빠다	-11.4105
▁불가능한	-11.4105
▁김구라	-11.4105
▁변한	-11.4108
▁무난한	-11.4109
▁남자배우	-11.411
▁몇일	-11.4111
▁재밌게봄	-11.4111
▁엉뚱한	-11.4111
▁기억남	-11.4114
▁야한장면	-11.4114
대충	-11.4115
▁내용이나	-11.4115
거같고	-11.4117
▁발랄	-11.4118
▁생각해요	-11.4121
▁사람으로서	-11.4122
없냐	-11.4122
▁익숙	-11.4123
영화인듯	-11.4124
▁책도	-11.4126
▁당할	-11.4126
▁알수있는	-11.413
▁기억속에	-11.4131
▁말이죠	-11.4132
탐	-11.4135
▁결혼하고	-11.4136
▁마인드	-11.4138
▁늘어지는	-11.4139
자리에	-11.4142
▁시켜	-11.4143
▁형편없다	-11.4143
▁있죠	-11.4144
▁바뀌고	-11.4145
▁곳이	-11.4145
▁것으로	-11.4148
▁앞뒤가	-11.4149
▁하늘을	-11.4149
왜이래	-11.4149
▁인내	-11.4151
▁이쁘네	-11.4151
했더라면	-11.4152
▁못되는	-11.4153
▁하나경	-11.4154
▁망했다	-11.4155
느와르	-11.4157
메세지	-11.4158
느낀	-11.4159
였는지	-11.4162
무협	-11.4162
할머니	-11.4163
빼면	-11.4163
▁악당들	-11.4164
▁운명을	-11.4165
히히	-11.4165
화부터	-11.4165
재밌었는데	-11.4165
▁지친	-11.4165
살짝	-11.4167
▁기대안	-11.4167
내기	-11.4171
▁뿐이고	-11.4172
▁본영화중	-11.4175
대본	-11.4175
이쁘다	-11.4175
▁투자한	-11.4177
▁볼땐	-11.4178
왜이리	-11.4178
본건데	-11.418
버렷	-11.4181
▁좋아했	-11.4181
as	-11.4182
▁뱀	-11.4182
▁아들의	-11.4183
▁엉망인	-11.4183
▁영화죠	-11.4184
▁한번보고	-11.4184
▁역량이	-11.4185
▁못했지만	-11.4185
풍경	-11.4187
▁동물들	-11.419
▁가졌	-11.4191
▁최고의드라마	-11.4195
저예산	-11.4199
▁숨어	-11.4199
▁잡을	-11.4203
스카	-11.4203
▁만들었지	-11.4204
▁공리	-11.4204
▁ᄀᄀ	-11.4205
키는	-11.4206
▁특수	-11.4207
인기	-11.4207
▁볼줄	-11.4213
▁할일	-11.4213
▁처음보는	-11.4213
▁볼거없	-11.4214
el	-11.4216
하나하나	-11.4216
▁배우고	-11.4217
▁했네	-11.4217
▁사랑할	-11.4218
▁개망	-11.4218
▁어이없네	-11.4219
넣어	-11.422
▁돋는다	-11.4221
는것은	-11.4221
보여서	-11.4224
받아야	-11.4226
▁???	-11.4231
▁나오면서	-11.4232
▁킬링타임도	-11.4233
▁부드럽	-11.4235
▁평점높	-11.4235
해가는	-11.4236
▁허준	-11.4236
보니깐	-11.4237
이라는걸	-11.4237
▁뚝	-11.4238
▁못봤다	-11.4238
▁사실에	-11.424
▁노래와	-11.4245
▁영화니까	-11.4246
군대	-11.4249
▁이야기로	-11.4252
재밋엇	-11.4253
일지도	-11.4253
▁아름답	-11.4254
▁놀이	-11.4254
▁더빙도	-11.4256
프리	-11.4261
부분에	-11.4262
▁보이는데	-11.4263
▁그러고	-11.4265
-10	-11.4266
개판	-11.4268
▁하니까	-11.4268
심리를	-11.4274
▁밝	-11.4275
▁안본사람	-11.4278
▁망작이	-11.4278
기억에	-11.4279
▁작품으로	-11.4284
▁우려	-11.429
gt	-11.4294
▁나오던	-11.4296
▁여자들은	-11.4297
▁엄마는	-11.4298
▁스톤	-11.4298
▁였습니다	-11.4299
▁조조	-11.43
▁광주	-11.4302
▁보니깐	-11.4302
병이	-11.4304
년생	-11.4304
있다고	-11.4305
멋잇	-11.4306
편안하게	-11.4307
그렇다고	-11.4307
▁흥미가	-11.4308
생각해	-11.4311
유리	-11.4312
재미잇	-11.4312
인건가	-11.4313
쩌네	-11.4313
적이지도	-11.4313
하던지	-11.4314
▁조심	-11.4315
▁가슴으로	-11.4315
▁대한민국의	-11.4315
▁어릴적에	-11.4315
▁찾을수	-11.4316
▁하셨	-11.4317
말해서	-11.4318
▁뻔함	-11.4319
▁먹은	-11.4327
▁씬이	-11.4327
둬	-11.4328
▁평범하지	-11.4329
▁나간	-11.433
▁아까운데	-11.4333
▁했어	-11.4333
질러	-11.4334
▁조용	-11.4334
▁방향	-11.4337
사장	-11.4337
지원	-11.4337
▁인간에	-11.4338
▁일점도	-11.4338
▁분노의	-11.4341
야되는데	-11.4341
▁잔잔하다	-11.4342
▁속편은	-11.4342
▁이러면	-11.4346
중심	-11.4346
▁데려다	-11.4346
▁이들이	-11.4347
질때	-11.4347
▁No	-11.4348
물체	-11.435
▁네이버에	-11.435
들어서	-11.4351
??????	-11.4351
▁남매	-11.4353
▁극을	-11.4353
▁되려	-11.4355
▁작위적	-11.4355
단다	-11.4356
▁사건이	-11.4357
▁다가오	-11.4358
▁공감대	-11.4359
▁내용이지만	-11.4359
던영화	-11.436
보기에도	-11.4362
읽어	-11.4362
셔야	-11.4364
연기자들	-11.4364
▁연기들	-11.4365
▁쓸쓸	-11.4366
노력	-11.4368
▁다시보면	-11.4368
▁그녀가	-11.4371
▁표현을	-11.4372
겟지	-11.4375
~~~~~~~	-11.4375
▁히트	-11.4376
시티	-11.4376
▁자격	-11.4378
스러웠	-11.438
▁만들어주	-11.4381
▁재미없었	-11.4382
▁말이야	-11.4383
▁맞음	-11.4385
▁수백	-11.4386
▁끝나면	-11.4386
즐겁	-11.4388
▁be	-11.4388
▁들어가는	-11.4389
실수	-11.4391
▁묘사한	-11.4392
▁버스	-11.4394
▁비디오용	-11.4396
원작을	-11.4399
▁로드	-11.4399
것일까	-11.4399
조잡하고	-11.4401
주인공의	-11.4401
애인	-11.4408
리플	-11.4408
▁지루함과	-11.441
▁적극	-11.4411
▁색다르	-11.4411
산다	-11.4414
▁볼걸	-11.4415
아아	-11.4417
▁톱	-11.4417
▁친절	-11.4418
▁출연진들	-11.4422
▁어설프	-11.4422
현실적	-11.4423
동네	-11.4424
▁봐요	-11.4424
즌	-11.4429
▁ᅮᅲ	-11.443
눌	-11.443
▁너희들	-11.4431
▁뽕	-11.4432
▁악당이	-11.4432
▁개성이	-11.4433
밨	-11.4435
▁연예	-11.4437
▁과대평가	-11.4437
▁묻혀	-11.4437
밌	-11.4438
▁바랬	-11.4439
갠	-11.4439
▁지루하다고	-11.444
▁법한	-11.444
▁봤는대	-11.4441
▁스칼렛	-11.4441
▁스토리텔링	-11.4441
▁움직임	-11.4441
▁히틀러	-11.4441
밭	-11.4441
쉰	-11.4441
켈	-11.4441
톨	-11.4441
▁뒷통수	-11.4441
▁서세원	-11.4441
뤘	-11.4441
쵸	-11.4441
붓	-11.4441
▁배슬기	-11.4441
▁불멸의	-11.4441
▁고릴라	-11.4441
▁버금가	-11.4441
▁지독한	-11.4441
▁미션임파서블	-11.4441
▁균형	-11.4441
q	-11.4441
▁뽀로로	-11.4441
▁하야오	-11.4441
▁다케시	-11.4441
▁브라이언	-11.4441
▁타이밍	-11.4441
▁이렇지	-11.4442
▁짜여진	-11.4442
▁아키라	-11.4442
▁흥미롭다	-11.4442
▁유익한	-11.4442
▁놀랄	-11.4442
▁6.5	-11.4442
▁역겹고	-11.4442
▁어울릴	-11.4442
▁바꿀	-11.4443
▁우울증	-11.4443
▁빠져든다	-11.4443
▁새로울	-11.4443
▁헛소리	-11.4443
▁모르면	-11.4443
▁속도감	-11.4443
▁얻은	-11.4444
▁저버리지	-11.4444
헌터	-11.4444
▁감동적이예요	-11.4444
▁빠르고	-11.4444
▁한결같	-11.4444
▁애절하	-11.4445
▁친일파	-11.4445
▁한몫	-11.4446
▁쓰나미	-11.4446
▁전하고자	-11.4446
▁없으며	-11.4447
▁고딩때	-11.4448
웃기다	-11.4448
▁잼있었음	-11.4448
▁살아갈	-11.4448
▁걷는	-11.4449
▁추격씬	-11.4449
▁무색	-11.4449
▁희극	-11.4449
▁왜이러냐	-11.4449
우리가	-11.4449
소재는	-11.4449
추천합니다	-11.445
▁보지만	-11.445
▁열받아서	-11.445
▁2002	-11.445
▁초반은	-11.4451
▁아쉽습니다	-11.4451
▁형태	-11.4451
▁작살	-11.4453
▁정사씬	-11.4453
▁알았습니다	-11.4453
▁쿠바	-11.4455
점줍니다	-11.4455
▁약빨고	-11.4457
▁말지	-11.4458
▁영구와	-11.446
▁정글	-11.4461
▁왜이러지	-11.4462
▁이유없이	-11.4463
▁강조	-11.4464
▁충격적이다	-11.4464
▁두가지	-11.4465
래야	-11.4467
르르	-11.4467
▁먹먹하고	-11.4468
▁보는듯한	-11.4468
막장드라마	-11.4468
▁유행어	-11.4468
▁취미	-11.4469
버리네	-11.4471
▁떨어지지만	-11.4473
▁안듬	-11.4473
43	-11.4474
▁아담샌들러	-11.4474
▁책임감	-11.4475
▁안됩니다	-11.4475
▁먹칠을	-11.4476
▁몇년전에	-11.4476
▁궁금증	-11.4476
이미	-11.4477
▁어려웠	-11.4478
▁소중함	-11.4478
▁높여	-11.448
주던	-11.448
▁낮추	-11.448
▁급하게	-11.4481
▁개인적	-11.4482
▁뭣도	-11.4482
▁일일	-11.4482
▁구리고	-11.4482
▁잼있는데	-11.4483
▁시끄럽	-11.4484
▁성질	-11.4485
▁말하려고	-11.4485
캐릭터가	-11.4485
▁어정쩡한	-11.4485
탄은	-11.4486
▁어이없게	-11.4487
▁무작정	-11.4487
▁히치콕	-11.4487
▁압권이다	-11.4487
넘치는	-11.4487
▁판타지를	-11.4488
▁사라지고	-11.4489
▁짧고	-11.449
▁홀로	-11.449
▁알았지만	-11.4492
▁있기에	-11.4493
▁달달하고	-11.4493
▁기대이상으로	-11.4494
드라마로	-11.4494
▁느껴야	-11.4495
▁소름돋는다	-11.4496
주말	-11.4499
▁알았네요	-11.4499
▁아기자기한	-11.45
▁채민서	-11.45
▁있었지	-11.45
▁시리즈로	-11.45
▁수고하셨습니다	-11.45
했구나	-11.4503
▁해피엔딩으로	-11.4503
▁연출의	-11.4505
워크	-11.4505
었구나	-11.4506
▁야하다	-11.4508
▁애들용	-11.4508
놓는	-11.4509
나오더라	-11.4509
▁케이	-11.4509
최강	-11.451
▁아휴	-11.451
▁만들었다면	-11.451
▁멈추	-11.4513
▁소비	-11.4516
싶어요	-11.4518
▁진하게	-11.4518
▁멋졌다	-11.4519
▁이루어진	-11.4519
▁무슨생각으로	-11.4522
▁그러니	-11.4523
▁윤계상	-11.4526
▁극의	-11.4527
할텐데	-11.4529
▁엔딩까지	-11.4531
▁자질	-11.4531
▁조금더	-11.4531
풀어	-11.4531
▁생각남	-11.4532
▁고쳐	-11.4533
▁변호사	-11.4535
▁프로그램이	-11.4538
십니다	-11.4539
▁샀	-11.4539
신듯	-11.4541
▁최저	-11.4541
래요	-11.4544
▁바비	-11.4544
▁일기	-11.4546
을까요	-11.4547
굿굿굿	-11.4548
▁쓰면	-11.455
▁작업	-11.455
all	-11.4551
▁빗	-11.4552
▁가운데	-11.4552
▁즐거웠다	-11.4553
생각보다	-11.4554
▁부를	-11.4555
▁2009	-11.4555
▁별하나도	-11.4556
ᄃᄃᄃᄃ	-11.4557
▁예전의	-11.4557
▁제공	-11.4558
▁영화한편	-11.4558
▁질주	-11.4559
년후	-11.4562
▁챙겨보는	-11.4565
▁곽	-11.4565
▁헬기	-11.4566
▁포드	-11.4568
▁지금보니	-11.4569
▁무명	-11.4572
▁찾아볼수	-11.4574
▁벌레	-11.4574
그런가	-11.4574
▁의미하는	-11.4574
▁좋은거	-11.4575
게되는	-11.4576
▁추천함	-11.4578
▁귀요미	-11.4579
▁준수	-11.4579
▁그러니까	-11.458
일텐데	-11.4581
났는데	-11.4581
▁대구	-11.4583
완벽	-11.4584
▁질질끌고	-11.4584
박스	-11.4585
▁패기	-11.4586
▁해야할	-11.4588
▁맞지만	-11.4589
▁못된	-11.4589
▁과제	-11.4591
▁저에게	-11.4591
are	-11.4591
재밌는영화	-11.4593
▁안어울리	-11.4594
▁난무하는	-11.4595
▁노래들	-11.4595
무서움	-11.4596
어주는	-11.4597
▁재밌지만	-11.4598
남을	-11.4599
▁안보는데	-11.4599
켄	-11.4599
▁봐왔	-11.46
아까	-11.4602
씁쓸	-11.4605
듯합니다	-11.4607
아름답	-11.4607
-_	-11.4607
짤	-11.4607
▁나오길	-11.4609
녹	-11.4609
▁퉤	-11.4611
▁제작진이	-11.4611
▁괜찮다고	-11.4611
넌	-11.4611
쓰래기	-11.4612
통쾌	-11.4612
열심히	-11.4612
힐링	-11.4613
SF	-11.4613
꼭보세요	-11.4615
▁높고	-11.4615
재밌었어요	-11.4615
▁잘만든영화	-11.4617
개뿔	-11.4617
순수	-11.4617
좋겠어요	-11.4618
▁써먹	-11.4619
영화중에	-11.4619
▁있어야지	-11.4619
▁팬이라	-11.462
▁그림자	-11.4621
조절	-11.4621
대단하다	-11.4622
차별	-11.4622
갔음	-11.4622
연결	-11.4622
▁면도	-11.4623
주려고	-11.4624
▁영화일뿐	-11.4625
▁볼만하고	-11.4626
환경	-11.4626
겟네	-11.4628
으므로	-11.4629
주변	-11.4631
▁정화	-11.4631
스포	-11.4634
▁예상되는	-11.4634
예쁘고	-11.4634
▁친구와	-11.4635
▁피가	-11.4637
▁나오지만	-11.4638
▁재미업	-11.4638
데리고	-11.4639
▁후회없	-11.4639
려니	-11.4639
▁죽어도	-11.4641
▁중요한건	-11.4642
이라는거	-11.4643
중반	-11.4644
단지	-11.4645
티비로	-11.4645
사랑해요	-11.4646
본인	-11.4646
라구	-11.4647
▁PD	-11.4648
▁꼭보시길	-11.4649
▁귀한	-11.465
매우	-11.465
▁후회할	-11.4651
▁보기전에	-11.4651
된다는	-11.4652
좋았던	-11.4653
▁개실망	-11.466
▁리스트	-11.4661
▁목사님	-11.4664
▁궁금하지	-11.4664
친구가	-11.4665
▁아니여	-11.4665
마디	-11.4665
▁우수	-11.4667
▁자매	-11.4667
결말도	-11.4668
▁현상	-11.4668
▁한순간	-11.4668
▁개봉작	-11.4668
ᄏᄏᄏᄏᄏᄏᄏᄏᄏᄏᄏᄏᄏᄏ	-11.4671
▁팬인데	-11.4673
하네여	-11.4674
///	-11.4674
전문가	-11.4674
투성이	-11.4675
줄께	-11.4679
▁직원	-11.468
작가의	-11.4681
▁주인공과	-11.4681
▁다수	-11.4682
▁웃겼	-11.4683
여기서	-11.4684
▁제한	-11.4685
▁티비에	-11.4687
하자면	-11.4692
났습니다	-11.4693
▁의아	-11.4693
있는지	-11.4695
잤다	-11.4695
버그	-11.4697
!!!!!!!!!!!	-11.4697
▁나갈	-11.4699
▁강렬	-11.4701
▁활동	-11.4702
▁나같은	-11.4703
진실	-11.4704
▁비평	-11.4704
사람만	-11.4705
뿌리	-11.4705
▁뭐든	-11.4706
▁못봐주겠	-11.4708
▁차리	-11.4708
▁연기력을	-11.471
▁바가	-11.471
분명	-11.4711
에로영화	-11.4712
▁그걸로	-11.4714
▁무도	-11.4715
포기	-11.4717
▁벗어나지	-11.4717
▁★	-11.4719
▁여주는	-11.4723
▁줄거리는	-11.4725
▁대형	-11.4727
▁너네	-11.4728
▁찍어도	-11.4729
리그	-11.4733
달아	-11.4733
▁한국인이	-11.4739
잼잇	-11.4741
많아	-11.4742
▁감상하	-11.4743
▁지워	-11.4746
▁주인공인	-11.4746
▁장군	-11.4746
▁뜻이	-11.4748
자유	-11.4753
▁애기들	-11.4753
▁나지	-11.4754
▁드라마에서	-11.4757
정의	-11.4764
해야하는	-11.4772
▁중국인	-11.4772
▁나왔었	-11.4773
▁각인	-11.4774
▁집중하게	-11.4777
볼라고	-11.478
▁우롱	-11.478
▁해주었	-11.4783
▁속지	-11.4785
▁이런데	-11.4788
▁지네	-11.4789
▁파일	-11.479
ve	-11.4791
▁공감은	-11.4796
▁잡지	-11.4796
▁바라보	-11.4796
▁될지	-11.4798
▁감성에	-11.48
에서부터	-11.4802
히고	-11.4803
아닌가요	-11.4804
▁해줄	-11.4804
바래	-11.4805
ᅲᅲᅲᅲᅲᅲᅲᅲᅲᅲᅲᅲᅲᅲᅲᅲ	-11.4806
▁지나면	-11.4806
▁해리	-11.4807
돌리	-11.4808
주인공들	-11.481
▁안나와	-11.4814
▁잊혀지지가	-11.4815
▁망하는	-11.4817
남자의	-11.4818
우드	-11.4825
▁자존심	-11.4825
▁따뜻함	-11.4826
시기를	-11.4827
▁미래의	-11.4829
▁이것을	-11.4829
▁생각과	-11.4829
배우님	-11.4831
잡을	-11.4832
▁-_-;	-11.4834
시로	-11.4834
▁킬링타임으로	-11.4838
▁감안	-11.4839
뚫	-11.484
▁읽었	-11.4841
나옵니다	-11.4841
▁쿵	-11.4846
밑	-11.485
▁좋으면	-11.4854
▁재밋엇	-11.4854
되지만	-11.4856
▁감동까지	-11.4856
▁2006	-11.4857
준비	-11.4858
겄	-11.4858
▁돋는	-11.4858
차가	-11.4858
▁편지	-11.4861
▁웃길	-11.4861
▁연출이나	-11.4861
억울	-11.4867
▁기억하고	-11.4869
자극	-11.4869
하던가	-11.4871
포스터보고	-11.4871
▁국민들	-11.4872
킴	-11.4872
▁제목부터	-11.4873
▁해보고	-11.4875
된거	-11.4877
캠	-11.4877
▁본적	-11.4878
▁나비	-11.4878
이라고는	-11.488
▁지능	-11.4881
▁녹화	-11.4881
본다면	-11.4884
▁벗는	-11.4884
▁상당	-11.4887
렛	-11.4887
▁미스터	-11.4887
▁피어	-11.4888
왔어요	-11.4888
으려는	-11.4888
니까요	-11.4889
▁신앙	-11.489
륜	-11.4892
▁불꽃	-11.4892
▁바뀌었	-11.4894
빤	-11.4895
슬픈	-11.4895
랙	-11.4895
▁놓칠	-11.4895
깡	-11.4895
뭇	-11.4895
훗	-11.4895
윙	-11.4895
짬	-11.4896
펄	-11.4896
▁쥬라기공원	-11.4896
쪄	-11.4896
▁Bad	-11.4896
▁드릅게	-11.4896
▁몸부림	-11.4896
▁봤으나	-11.4896
▁샤를리즈	-11.4896
▁샤말란	-11.4896
▁애틋한	-11.4896
▁여고괴담	-11.4896
▁인상깊다	-11.4896
▁쿠엔틴	-11.4896
뜰	-11.4896
붐	-11.4896
짖	-11.4896
▁손오공	-11.4896
▁맛깔나	-11.4896
▁삼국지	-11.4896
▁정확한	-11.4896
▁멸망	-11.4896
▁당췌	-11.4896
▁이정현	-11.4896
▁두려워	-11.4896
▁깨끗하	-11.4896
▁테러리스트	-11.4896
▁퍼펙트	-11.4896
▁쪽바리	-11.4896
▁며칠	-11.4896
▁과거에	-11.4896
▁국뽕	-11.4896
▁왔다갔다	-11.4896
▁ᄌᄅ	-11.4896
지망생	-11.4896
▁빠르게	-11.4897
부분에서	-11.4897
▁베리굿	-11.4897
▁여고생	-11.4897
▁만화로	-11.4897
▁지인	-11.4897
▁음모론	-11.4897
▁이겨내	-11.4897
▁무뇌	-11.4898
▁힘듬	-11.4898
▁평가할	-11.4898
▁종결	-11.4898
▁있었으나	-11.4898
▁극장개봉	-11.4899
▁브금	-11.4899
▁위안부	-11.4899
▁있었을텐데	-11.4899
▁하여간	-11.4899
▁영화사에	-11.4899
▁최강희	-11.49
개드림	-11.49
▁반항	-11.49
▁제목도	-11.4901
▁창문	-11.4901
살짜리	-11.4901
▁주셔서	-11.4901
▁연락	-11.4903
▁모르겠습니다	-11.4903
▁계단	-11.4903
▁공격	-11.4903
▁모든면에서	-11.4903
▁생생하다	-11.4903
▁에혀	-11.4903
▁안타깝지만	-11.4904
▁2007	-11.4904
우정	-11.4905
▁반복되는	-11.4905
▁호강	-11.4905
▁타입	-11.4905
▁고집	-11.4908
▁독재	-11.4908
▁어필	-11.4908
▁궁금하네요	-11.491
▁심하네	-11.491
▁오유에서	-11.4911
질질끄	-11.4911
▁않았어요	-11.4912
▁친구들이랑	-11.4912
▁루즈	-11.4912
▁파워	-11.4913
▁키스신	-11.4913
▁앞서간	-11.4914
순수하게	-11.4915
▁감정에	-11.4915
▁평점테러	-11.4915
이야기가	-11.4916
기회를	-11.4916
▁이러냐	-11.4916
▁줄거리에	-11.4916
▁콜린퍼스	-11.4916
▁보석같은	-11.492
▁등장인물들이	-11.492
▁웃기려고	-11.492
▁어이없어	-11.492
▁높음	-11.492
▁들었음	-11.4921
▁초점을	-11.4922
▁접한	-11.4922
▁쓸쓸한	-11.4923
▁안되지	-11.4927
▁궁금해	-11.4928
▁배제	-11.4928
▁무방	-11.4928
▁해줘서	-11.4928
▁귀엽네요	-11.493
포스	-11.4931
▁좋은영화다	-11.4931
▁위안	-11.4932
▁생각된다	-11.4933
▁과하게	-11.4933
▁수호	-11.4933
▁루시	-11.4934
▁우울하고	-11.4934
▁철학이	-11.4934
▁되겠다	-11.4935
▁보여줬는데	-11.4935
▁약을	-11.4937
▁갑이다	-11.4937
▁안타깝	-11.4938
▁이상형	-11.4938
▁이쁘네요	-11.494
▁극적	-11.494
▁-1	-11.494
▁끌려	-11.4941
▁봉태규	-11.4944
▁최지우	-11.4944
▁어렵게	-11.4944
▁남습니다	-11.4947
▁무시하고	-11.4947
▁웃어야	-11.4949
▁허술함	-11.495
▁오늘날	-11.4952
▁따뜻해	-11.4952
▁무장	-11.4952
▁허비	-11.4952
▁치밀하고	-11.4954
▁남자친구	-11.4955
▁말대로	-11.4956
▁고급	-11.4956
▁변하는	-11.4957
▁유승준	-11.4957
▁김래원	-11.4957
▁부조리	-11.4957
▁홍수	-11.4957
▁크리스틴	-11.4958
▁표현된	-11.4958
▁넘어가는	-11.4959
위해	-11.4961
▁안죽	-11.4963
▁처음봄	-11.4963
▁다큐영화	-11.4965
▁전반적	-11.4965
재희	-11.4966
▁모처럼	-11.4967
▁ᄏᄏᄏᄏᄏᄏᄏᄏᄏᄏᄏᄏ	-11.4968
▁내취향은	-11.4968
▁짜증났	-11.4968
▁불쾌함	-11.497
▁몰입도는	-11.4971
▁이선균	-11.4971
▁AV	-11.4972
▁안타까워	-11.4973
▁7~8	-11.4973
▁그사람	-11.4974
▁꽃보다	-11.4979
▁쫓아	-11.498
▁보실	-11.498
▁틀리	-11.4981
▁지날	-11.4981
▁현실적	-11.4982
상황이	-11.4984
▁거시기	-11.4986
회까지	-11.4986
장면에선	-11.4988
▁오유	-11.4988
하심	-11.4991
▁늘어놓	-11.4991
▁여운이남는	-11.4991
▁단순하고	-11.4992
▁한방에	-11.4994
▁추억에	-11.4994
▁아픔과	-11.4994
▁봤어도	-11.4995
▁음악의	-11.4996
▁벗고	-11.4997
▁유머와	-11.4998
▁않겠다	-11.4998
▁김남길	-11.4998
▁자신감	-11.4999
▁놀람	-11.4999
로서는	-11.5
또다시	-11.5001
뭐임	-11.5001
▁용기를	-11.5002
▁괜찮았	-11.5002
▁명작중의	-11.5002
▁따라하기	-11.5003
▁청춘들	-11.5005
▁느려	-11.5006
을거다	-11.5006
해선	-11.5006
▁버리는	-11.5006
▁않았을	-11.5006
둘다	-11.501
▁샹	-11.5012
무엇	-11.5014
▁동료	-11.5015
▁싶었음	-11.5015
▁잔인하다	-11.5015
유루	-11.5017
박사	-11.5018
네ᅳᅳ	-11.5022
▁빨아	-11.5023
제작비	-11.5023
▁몰고	-11.5024
먹기	-11.5025
이야기를	-11.5026
▁끝장	-11.5026
▁주는건	-11.5026
라기보단	-11.5026
▁나가고	-11.5026
함께	-11.503
▁먹먹해	-11.503
▁노잼이다	-11.5033
분장	-11.5038
▁일어났	-11.5038
안되고	-11.504
▁또보고싶	-11.504
▁오래전	-11.5044
보였다	-11.5046
▁느끼는게	-11.5047
▁심장을	-11.5047
▁보느라	-11.5048
▁성장기	-11.5048
▁싶을정도로	-11.5049
델	-11.505
▁국내에서	-11.5051
▁만족스럽	-11.5051
▁처리	-11.5053
▁오우	-11.5054
▁up	-11.5055
극으로	-11.5055
영화라니	-11.5058
▁역겨워	-11.5059
▁상업적	-11.5061
▁현실성도	-11.5061
거리고	-11.5062
액션도	-11.5063
십대	-11.5066
▁뜬	-11.5066
▁꺄	-11.5068
▁잉	-11.5068
하지않은	-11.5068
듯한데	-11.507
롤	-11.507
▁설치	-11.507
▁보수	-11.5072
거리며	-11.5074
▁즐겨보	-11.5075
싼	-11.5079
떄문에	-11.5079
날때	-11.5081
▁혀	-11.5081
랩	-11.5082
V	-11.5082
▁하지말고	-11.5082
▁잼있고	-11.5083
릴수	-11.5084
한마디	-11.5085
펜	-11.5085
▁ᄊ	-11.5085
쭉	-11.5087
곰	-11.5087
▁아이디어가	-11.5087
▁음악까지	-11.5087
▁대상	-11.5087
핵노잼	-11.5089
▁탈을	-11.5089
도저히	-11.5089
아쉬움	-11.509
새로운	-11.5091
라는건지	-11.5091
아저씨가	-11.5092
사랑하는	-11.5092
독립영화	-11.5092
▁못지	-11.5093
재밌었음	-11.5093
거기다	-11.5094
여자들	-11.5095
▁나오나	-11.5096
▁딴짓	-11.5097
역사상	-11.5098
종교	-11.5098
리뷰	-11.51
실화라서	-11.51
▁인간미	-11.51
▁중세	-11.51
▁야동을	-11.5102
고양이	-11.5104
▁동원	-11.5105
one	-11.5106
▁감동이네요	-11.5107
▁신기할	-11.5108
▁보여줬	-11.5108
▁속아	-11.5108
레알	-11.511
▁조성	-11.511
했어야	-11.511
▁영화였네요	-11.5111
▁없는거	-11.5112
▁기다리는	-11.5114
▁가는데	-11.5114
스케일	-11.5116
▁ever	-11.5118
기다리	-11.5119
잼있어요	-11.512
▁썩어	-11.5123
▁얼굴을	-11.5123
▁가사	-11.5124
낸다	-11.5125
좋았는데	-11.5125
▁보냐	-11.5126
먹지	-11.5129
▁만났다	-11.5129
▁줄은	-11.5134
상처	-11.5135
코가	-11.5135
▁추적	-11.5135
▁끌지	-11.5137
▁계시	-11.5137
▁잠만	-11.5138
▁맞을	-11.5139
▁봤을때는	-11.5139
아침	-11.5139
내인생	-11.514
▁내려가	-11.514
인것같다	-11.514
▁무서운영화	-11.514
▁닭	-11.5141
▁목적이	-11.5142
다시보고싶	-11.5145
같습니다	-11.5149
▁열자	-11.515
▁하더라	-11.515
업고	-11.5152
▁끌리는	-11.5152
세력	-11.5154
▁낫네	-11.5155
라기보다	-11.5159
▁쩔고	-11.5159
하지말자	-11.516
▁중딩	-11.5162
▁애쓴	-11.5162
▁그곳	-11.5164
▁파이	-11.5165
▁곳곳에	-11.5166
겁나	-11.5166
개연성없는	-11.5169
▁않기	-11.517
▁다음주	-11.517
▁고어물	-11.5172
리라	-11.5173
뻔하고	-11.5174
▁랩	-11.5177
▁우정이	-11.5177
▁최강의	-11.5178
▁괜찮은영화	-11.5179
▁노력은	-11.5181
▁낚였어	-11.5182
께요	-11.5183
▁시절이	-11.5183
▁그것뿐	-11.5183
▁가지게	-11.5184
▁볼수있다	-11.5186
▁살자	-11.5186
▁경지	-11.5187
란걸	-11.5187
질질	-11.519
▁줄거리도	-11.5191
▁귀여웠	-11.5195
▁본시리즈	-11.5196
▁전혀없는	-11.5197
▁스릴러의	-11.5199
버린다	-11.5201
▁갖는	-11.5202
여진	-11.5207
석이	-11.5208
▁데뷔	-11.5208
▁악인	-11.5211
▁발전이	-11.5212
▁암울	-11.5213
28	-11.5213
▁모든것	-11.5216
▁글로	-11.5218
▁시망	-11.5219
▁질러	-11.5221
▁껴	-11.5222
▁쉐	-11.5223
▁전쟁에	-11.5224
▁끊어	-11.5226
▁높았	-11.5228
되는데	-11.5228
겨서	-11.5231
없구	-11.5233
▁미칠	-11.5234
▁띠	-11.5235
있었음	-11.5237
▁진실이	-11.5238
▁실망시키지	-11.5239
▁식상하	-11.524
웃고	-11.5241
▁그러다	-11.5243
▁지루하지도	-11.5247
▁쩜	-11.525
많네	-11.5252
줄알고	-11.5253
▁알앗	-11.5253
년은	-11.5254
▁뛰어났	-11.5255
평점알바	-11.5258
▁어이가없	-11.5261
▁정상인	-11.5261
뻔함	-11.5263
잼씀	-11.5265
▁아는데	-11.5265
▁지쳐	-11.5267
▁여성들	-11.5268
대화	-11.5268
말라	-11.5269
▁의외	-11.5269
본적	-11.5271
▁끝부분	-11.5273
▁특집	-11.5278
▁연예인이	-11.5278
▁재밋네	-11.528
재밋고	-11.5288
성격	-11.529
▁흡사	-11.529
▁땀	-11.5291
기본적으로	-11.5291
유발하는	-11.5291
니아	-11.5292
엄마한테	-11.5293
▁잼없어	-11.5297
파리	-11.53
들과는	-11.5303
스럽지	-11.5303
없게	-11.5303
▁망쳤	-11.5304
▁액	-11.5306
드림	-11.5307
심장	-11.5308
들어가	-11.5308
▁알기	-11.5309
▁영상미에	-11.5311
▁고현정	-11.5311
아이들	-11.5311
▁스펙타클	-11.5313
▁내인생최고의	-11.5315
▁조은	-11.5319
▁두근	-11.532
▁너무하다	-11.532
결말은	-11.5322
▁궁금하게	-11.5323
박자	-11.5325
▁짧지	-11.5329
▁재능이	-11.5329
할수록	-11.533
렵	-11.5331
▁볼만은	-11.5332
무기	-11.5333
▁막장영화	-11.5339
전부	-11.5345
▁돋보인	-11.5347
▁남한	-11.5348
▁치곤	-11.5349
이아닌	-11.5349
지식	-11.5351
률	-11.5353
▁시대상	-11.5353
▁가르쳐	-11.5354
▁비슷하다	-11.5356
도아닌	-11.5356
▁사장	-11.5357
▁낫다고	-11.5357
켓	-11.5358
▁욕심이	-11.5358
▁신뢰	-11.5359
ce	-11.5361
▁초호화	-11.5364
잣	-11.5364
▁아시아	-11.5366
▁휴먼	-11.5367
라며	-11.5368
밉	-11.5368
얀	-11.5368
꼈	-11.5369
펑	-11.5369
▁매튜	-11.537
낌	-11.537
띵	-11.537
▁추천해주고	-11.537
앨	-11.5371
쉴	-11.5371
팩	-11.5371
낄	-11.5372
겸	-11.5372
캔	-11.5372
엣	-11.5372
▁어쩌라는	-11.5372
ᅧ	-11.5372
▁이스라엘	-11.5372
캅	-11.5372
^0^	-11.5372
▁그로테스크	-11.5372
▁사이코패스	-11.5372
▁썰렁	-11.5372
▁어쨋든	-11.5372
▁죄책감	-11.5372
▁쫄깃	-11.5372
쌔	-11.5372
쑤	-11.5372
▁봤건만	-11.5372
▁장동민	-11.5372
▁김민준	-11.5372
▁꼽히는	-11.5372
▁유준상	-11.5372
▁별론데	-11.5372
▁부성애	-11.5372
▁애잔한	-11.5372
▁배두나	-11.5372
▁기가막히	-11.5372
라운드	-11.5372
|	-11.5372
▁이수근	-11.5372
▁해운대	-11.5372
▁그이하도	-11.5372
▁주연이	-11.5372
▁주제의식	-11.5372
▁쿵푸	-11.5372
▁풍부한	-11.5372
▁추구하는	-11.5372
릅니다	-11.5372
▁블루레이	-11.5372
▁테스트	-11.5373
▁유승호	-11.5373
▁관찰	-11.5373
▁말이필요없음	-11.5373
▁이리저리	-11.5373
▁박정희	-11.5373
▁크로우	-11.5373
▁챙기	-11.5373
▁나올법한	-11.5373
▁올만에	-11.5373
▁은은한	-11.5373
▁종북	-11.5373
▁ᄉᄀ	-11.5373
▁대기업	-11.5373
▁솔로	-11.5373
▁빠르기	-11.5374
▁새롭다	-11.5374
▁재미까지	-11.5374
▁물고기	-11.5374
▁ᄉᄉ	-11.5374
▁꼽으라	-11.5374
▁무개념	-11.5374
▁감정표현	-11.5375
▁찍었을까	-11.5375
▁순간순간	-11.5375
▁오줌	-11.5375
▁명량	-11.5376
▁자는	-11.5376
▁맘에든다	-11.5376
▁녹아있는	-11.5377
펙트	-11.5377
▁미화시킨	-11.5377
▁잉여	-11.5377
▁볼까말까	-11.5377
▁종종	-11.5378
▁위대하다	-11.5378
▁제외하면	-11.5378
▁폭파	-11.5378
▁건축	-11.5379
▁무관심	-11.5379
▁개성있는	-11.538
▁‘	-11.538
▁프레	-11.538
▁존재하지	-11.5381
▁모를까	-11.5381
▁사례	-11.5381
▁안무섭고	-11.5382
▁찾아가는	-11.5383
▁지닌	-11.5383
▁케이스	-11.5383
▁세번째	-11.5383
살려	-11.5384
▁되버린	-11.5384
보는줄	-11.5384
▁기발하고	-11.5384
▁근본	-11.5384
▁담겨져	-11.5384
▁느껴지네요	-11.5385
▁욕설	-11.5385
▁끼워넣	-11.5385
▁마련	-11.5385
▁별로지만	-11.5386
▁절묘한	-11.5386
▁미개한	-11.5386
▁안무서움	-11.5388
▁못알아	-11.5389
▁알려지지	-11.5389
▁윌리엄스	-11.5389
▁누구에게나	-11.5389
▁밥먹	-11.5389
▁일일드라마	-11.5389
울때	-11.539
▁비슷해서	-11.5391
▁기절	-11.5391
따위는	-11.5392
▁봤던건데	-11.5392
▁양키	-11.5392
▁선배	-11.5392
▁네이버는	-11.5393
▁위선	-11.5394
▁구지성	-11.5395
▁고루	-11.5397
▁평작	-11.5397
인줄알고	-11.5397
▁짝사랑	-11.5397
▁보지말고	-11.5397
▁여전사	-11.5398
좋겠	-11.5398
▁나른	-11.5398
>_	-11.5398
▁건달	-11.5398
되기	-11.54
▁승화	-11.5401
▁없죠	-11.5402
▁전달하고자	-11.5402
▁거친	-11.5404
▁잼남	-11.5404
▁심오하	-11.5404
▁중심으로	-11.5404
▁니미	-11.5404
▁지루했던	-11.5405
노래도	-11.5405
확실하게	-11.5405
▁말까	-11.5405
▁천재적인	-11.5406
♡♡♡	-11.5406
적임	-11.5406
▁좋았네요	-11.5407
영환가	-11.5407
▁맙소사	-11.5408
▁트와일라잇	-11.5408
▁데드	-11.5409
▁무식한	-11.5409
점임	-11.5409
만든거	-11.5411
▁놀라게	-11.5411
▁진지하고	-11.5412
▁재밋던데	-11.5415
▁자신에게	-11.5416
▁이모양	-11.5416
▁그런대로	-11.5417
▁숨어있는	-11.5418
▁이건아니다	-11.5418
▁구석이	-11.542
키우	-11.542
▁동의	-11.5421
▁숀	-11.5421
감동적인	-11.5422
▁개나소나	-11.5422
▁차인표	-11.5422
더구만	-11.5422
일만에	-11.5422
▁믿기	-11.5423
▁감동이에요	-11.5423
▁행복하다	-11.5424
▁김성	-11.5425
▁도로	-11.5427
▁최악이네	-11.5429
▁대학교	-11.5429
뿌려	-11.543
▁그려진	-11.543
▁짙은	-11.543
▁팔아	-11.5431
슬슬	-11.5431
▁나았을	-11.5432
▁여운과	-11.5432
▁순정	-11.5432
▁촌스럽다	-11.5433
됐으면	-11.5434
▁예정	-11.5434
▁애들한테	-11.5434
▁전개를	-11.5434
▁사전	-11.5434
▁장인	-11.5434
▁비트	-11.5435
▁땀을	-11.5436
▁있다는걸	-11.5436
▁엠비씨	-11.5436
▁방황하는	-11.5437
▁한니발	-11.5437
89	-11.5438
▁선정	-11.5438
▁후려	-11.5439
▁내리는	-11.5439
마지막장면	-11.5442
▁동화책	-11.5443
▁짜릿함	-11.5443
같으면	-11.5446
▁이루는	-11.5446
재밋는	-11.5447
▁되는지	-11.5448
우와	-11.5449
지금은	-11.5449
▁되돌아보게	-11.545
▁아일랜드	-11.5451
▁안달	-11.5454
매니아	-11.5457
▁덮어	-11.5457
▁좋은영화입니다	-11.5457
▁오늘은	-11.5458
mo	-11.5458
▁시청자가	-11.5458
▁자막으로	-11.5458
▁요즘엔	-11.5459
▁놀라고	-11.546
▁딸을	-11.5461
▁장미	-11.5461
▁도덕	-11.5463
▁갈릴	-11.5464
▁당대	-11.5464
▁고마워	-11.5464
▁서인국	-11.5465
▁프로젝트	-11.5465
▁자막이	-11.5469
▁못한게	-11.5469
싶음	-11.547
▁넣고	-11.5471
▁사람인데	-11.5472
영환줄	-11.5472
▁198	-11.5474
인디	-11.5477
▁웃다	-11.5477
교사	-11.5477
귀엽	-11.5478
▁저예산으로	-11.5479
▁견자단이	-11.5481
▁하시길	-11.5481
학원	-11.5481
▁말도안돼	-11.5482
▁연기나	-11.5484
▁눈빛연기	-11.5484
▁실망입니다	-11.5485
▁욕나옴	-11.5485
▁웬지	-11.5485
▁그려내	-11.5485
▁열번	-11.5486
▁붙잡	-11.5489
▁그녀를	-11.5489
▁이딴영화가	-11.549
▁화가나	-11.5497
▁기념	-11.55
▁말길	-11.5502
▁영화이지만	-11.5502
▁일베충	-11.5502
였던거	-11.5502
보이지	-11.5503
서방	-11.5504
부모	-11.5507
▁극과	-11.5509
겠고	-11.5509
▁호텔	-11.5509
▁비행	-11.5511
▁가위	-11.5513
▁시사	-11.5514
녀석	-11.5514
▁시사회로	-11.5515
▁돈아까움	-11.5516
▁근래에	-11.5517
로선	-11.5517
▁집중할	-11.5518
▁부족했다	-11.552
▁재미없는데	-11.5522
인데요	-11.5527
▁여름에	-11.5527
생각하고	-11.5527
▁이해하	-11.5528
500	-11.5529
▁윌	-11.553
▁멋잇	-11.5532
▁올려주	-11.5532
머니	-11.5533
▁보아야	-11.5534
러운	-11.5534
▁사형	-11.554
▁여동생	-11.554
피어스	-11.554
▁중간까지	-11.5541
추억이	-11.5542
▁시리즈물	-11.5545
▁어린이들	-11.5546
de	-11.5546
▁낯	-11.5548
작전	-11.5549
▁살아가	-11.5549
▁고등학교때	-11.555
나올때마다	-11.555
▁진리다	-11.5551
▁머라	-11.5551
▁장사	-11.5552
▁그릇	-11.5552
일수	-11.5553
33	-11.5553
쌍	-11.5553
▁유치할	-11.5555
▁보시고	-11.5556
▁장치	-11.5556
한거지	-11.5557
▁비슷하	-11.556
▁포스가	-11.5561
잔인하	-11.5561
▁화면에	-11.5562
▁지나가는	-11.5563
▁원한	-11.5564
▁애매한	-11.5564
어울림	-11.5567
▁산만	-11.5567
▁연기잘하	-11.5569
▁있을까요	-11.557
아이들이	-11.5571
▁미워	-11.5572
있더라	-11.5574
낮아서	-11.5577
▁되다니	-11.5577
▁강요하는	-11.5578
서라도	-11.5579
소재를	-11.558
▁사실은	-11.5581
등록	-11.5581
울고	-11.5583
벤	-11.5587
및	-11.5587
본방사수	-11.5588
뭉	-11.5588
아닐까	-11.5589
하도록	-11.5589
대한민국	-11.559
▁세기	-11.5591
탈출	-11.5591
me	-11.5592
그럴	-11.5596
표절	-11.5596
생기고	-11.5599
..-_-	-11.56
▁된장	-11.56
▁드리고	-11.5601
설레	-11.5603
op	-11.5603
동영상	-11.5604
할아버지	-11.5605
▁내용도없고	-11.5605
브리	-11.5605
▁라스	-11.5605
나머지	-11.5608
▁만드는데	-11.5609
남친	-11.5609
▁신부	-11.5609
버리면	-11.561
▁울뻔	-11.561
상상	-11.561
▁할듯	-11.5613
▁붙어	-11.5613
감동적이다	-11.5614
▁있을때	-11.5616
▁재밌으면	-11.5618
인양	-11.5619
준이	-11.5621
▁대변	-11.5621
▁볼꺼	-11.5621
위에서	-11.5622
였을까	-11.5623
▁간직	-11.5624
▁아까울정도	-11.5626
▁요소들	-11.5626
▁자식들	-11.5629
▁작렬	-11.5631
라면서	-11.5631
귀엽고	-11.5631
어버린	-11.5633
돈아까워	-11.5633
▁지루하진	-11.5635
▁산만하	-11.5636
출연진	-11.5637
▁진실은	-11.5637
▁살릴	-11.5638
집중	-11.5638
▁집중력	-11.5646
죽이는	-11.5647
▁긴장되	-11.5649
▁보신분들	-11.565
▁이브	-11.5651
▁레드	-11.5654
귀엽다	-11.5654
밤에	-11.5655
▁채널을	-11.5655
▁곳에	-11.5658
여친	-11.5659
▁남아도	-11.5659
▁성격이	-11.566
어제	-11.5663
▁세트	-11.5664
▁저건	-11.5666
▁찍으면	-11.5668
역이	-11.5669
감정이	-11.567
▁그후	-11.5671
장군	-11.5671
▁보여줘야	-11.5673
궁금하	-11.5675
마지막회	-11.5678
▁후속	-11.5679
▁본거지	-11.568
잼있다	-11.568
신경	-11.5681
장진영	-11.5684
낚였	-11.5687
▁이런식	-11.5689
▁켄	-11.5692
▁이것만	-11.5694
▁명작이지	-11.5694
▁쯧	-11.5696
▁에스	-11.5698
▁그래요	-11.5698
아니지만	-11.5699
▁생각하니	-11.5701
생각함	-11.5702
▁세명	-11.5703
▁아역들	-11.5705
▁일깨워준	-11.5706
▁로맨스영화	-11.5707
▁맺	-11.5708
▁낮을	-11.5708
평론가들은	-11.571
팬으로써	-11.5714
▁일본어	-11.5721
공간	-11.5722
하게만드는	-11.5725
▁빛났	-11.5726
대전	-11.5726
▁머릿속에	-11.5726
로써는	-11.5727
▁묘사가	-11.5727
시청자	-11.5728
▁어색해	-11.5732
▁종류	-11.5732
▁못참	-11.5732
▁한쪽	-11.5732
먹는다	-11.5733
보다더	-11.5733
평점에	-11.5736
잘하는	-11.5737
▁주네	-11.5738
▁헤어	-11.5738
▁모르겟	-11.5739
▁나오는건	-11.574
▁길어	-11.574
시아	-11.5741
프다	-11.5741
꿈을	-11.5741
아들이	-11.5745
졌을	-11.5745
▁즐기기	-11.5745
▁하루하루	-11.5746
그걸	-11.5747
▁짱짱짱	-11.5748
▁죽음이	-11.5749
!!!!!!!!!!!!	-11.5751
▁주저	-11.5751
▁싶게	-11.5754
삶을	-11.5758
성장	-11.5759
▁그리스	-11.5763
▁것입니다	-11.5763
▁신은	-11.5765
▁원작인	-11.5766
▁봤던영화	-11.5767
▁나온건	-11.5769
었더라면	-11.577
초반에	-11.5771
▁유치하지	-11.5773
45	-11.5774
▁뗄수	-11.5775
▁나오는게	-11.5776
▁소녀들	-11.5783
왔으면	-11.5784
▁사서	-11.5786
여년	-11.5788
▁있을듯	-11.5794
▁스텝	-11.5794
▁미친영화	-11.5796
▁심오	-11.5801
그레	-11.5803
말은	-11.5803
비판	-11.5805
▁내용없는	-11.5806
..-_-;;	-11.5807
영화치고	-11.5808
몰라	-11.5808
▁부분에	-11.5808
▁이루어	-11.581
79	-11.581
역시나	-11.581
법을	-11.5811
▁너도	-11.5815
즐거워	-11.5818
▁부족해	-11.5819
▁넣었	-11.5824
▁필요하	-11.5825
빡치	-11.5825
으니깐	-11.5825
▁기대하는	-11.5825
본드라마	-11.5826
▁값	-11.5827
▁자체다	-11.5827
화나	-11.5831
어색한	-11.5831
▁일어	-11.5832
▁나온영화	-11.5834
▁비오는	-11.5834
할말이	-11.5836
재미가없	-11.5837
▁제리	-11.5838
렴	-11.5839
▁그립	-11.5839
왔습니다	-11.5839
인권	-11.5844
▁기대해	-11.5844
▁놓치	-11.5845
▁개명작	-11.5845
▁요즘에	-11.5846
략	-11.5849
▁뛰쳐	-11.5852
▁작작	-11.5857
▁잼이	-11.5858
났네	-11.5859
▁분위기만	-11.5859
떤	-11.586
엎	-11.5861
참나	-11.5864
▁베트남	-11.5865
▁매력도	-11.5865
▁소방관	-11.5866
▁그분	-11.5866
긍	-11.5866
망한	-11.5867
,,,,,	-11.5867
댈	-11.5869
꿨	-11.587
흙	-11.587
테잎	-11.5871
죤	-11.5871
렐	-11.5871
자마자	-11.5871
패밀리	-11.5871
얄	-11.5871
멈	-11.5872
훼	-11.5872
왈	-11.5872
쌩	-11.5872
ᄋᄉᄋ	-11.5872
▁ᄊᄅᄀ	-11.5872
▁낄낄	-11.5872
▁롱테이크	-11.5872
▁막무가내	-11.5872
▁박유천	-11.5872
▁스포일러	-11.5872
▁에니메이션	-11.5872
▁에반게리온	-11.5872
▁역겨움	-11.5872
乃	-11.5872
껍	-11.5872
▁this	-11.5872
▁마모루	-11.5872
▁밍밍	-11.5872
▁파치노	-11.5872
▁합리화	-11.5872
ᅣ	-11.5872
ight	-11.5872
▁김규리	-11.5872
▁장선우	-11.5872
▁노다메	-11.5872
▁미묘한	-11.5872
▁월드컵	-11.5872
▁곽지민	-11.5872
▁숀펜	-11.5872
▁비참한	-11.5872
▁초월한	-11.5872
▁엑소	-11.5872
라이브	-11.5872
▁킬빌	-11.5872
▁케로로	-11.5872
▁밉상	-11.5872
정말로	-11.5872
▁쌈마이	-11.5872
▁침략	-11.5872
>_<	-11.5872
▁하이라이트	-11.5872
▁sbs	-11.5872
▁좌좀	-11.5872
▁저지른	-11.5872
▁이문식	-11.5872
▁별로네	-11.5872
▁키드먼	-11.5872
▁똥폼	-11.5872
▁수식어	-11.5872
▁명확하	-11.5872
▁촌스러움	-11.5872
▁극대화	-11.5872
쩌는	-11.5873
▁스크림	-11.5873
▁뜬금포	-11.5873
▁시작해	-11.5873
▁풋풋함	-11.5873
▁도가니	-11.5873
▁흠뻑	-11.5873
▁웃음코드	-11.5873
▁내생의	-11.5873
▁쇼킹	-11.5873
▁토할뻔	-11.5873
▁특성	-11.5874
▁덕후	-11.5874
▁나도모르게	-11.5874
▁기괴하	-11.5875
▁실존	-11.5875
▁9~10	-11.5876
▁이질감	-11.5876
▁It	-11.5876
▁핑계	-11.5876
▁이거보면	-11.5877
▁아메리칸	-11.5877
탐험	-11.5877
▁머리속	-11.5877
▁그딴	-11.5877
입니당	-11.5878
▁의학드라마	-11.5878
레이터	-11.5878
▁똥칠	-11.5878
▁살아간다	-11.5878
▁정신병원	-11.5878
짝짝	-11.5879
▁재벌	-11.5879
▁명절	-11.5879
▁무튼	-11.5879
▁넘쳐나는	-11.5879
▁흠잡을데	-11.588
님과	-11.588
▁이제그만	-11.588
▁그립네요	-11.5881
▁그룹	-11.5881
▁나오길래	-11.5881
▁나왔는지	-11.5882
▁아니더라도	-11.5882
▁서른	-11.5882
▁바치는	-11.5882
▁로즈	-11.5883
▁어쩔수없이	-11.5883
▁무서웠음	-11.5883
▁마술	-11.5884
▁느껴져서	-11.5884
▁대립	-11.5884
▁개망작	-11.5885
▁환상적이	-11.5885
▁기대안하고봤는데	-11.5886
▁사랑스러움	-11.5886
▁흥미있	-11.5886
▁그려냈다	-11.5889
나왓으면	-11.589
▁환영	-11.589
▁어찌보면	-11.589
톱스타	-11.589
▁줄줄	-11.5891
▁출연했	-11.5893
▁담백하게	-11.5893
인칭	-11.5894
▁잼따	-11.5894
영화보고	-11.5895
▁구림	-11.5895
▁부담없이	-11.5895
▁연기실력	-11.5895
▁금발	-11.5896
▁걸릴	-11.5896
▁한마리	-11.5896
▁가난한	-11.5896
▁동생이랑	-11.5896
▁멀쩡한	-11.5897
hh	-11.5898
▁기본적인	-11.5898
▁호화	-11.5898
갑시다	-11.59
거같아서	-11.59
▁흐른다	-11.5901
▁떨어져서	-11.5901
▁하나씩	-11.5903
▁고난	-11.5903
좀더	-11.5904
▁맛있는	-11.5904
▁편히	-11.5904
▁진주	-11.5904
▁김정은	-11.5904
▁비교도	-11.5905
▁건너	-11.5906
▁들었는데	-11.5906
▁섬세함	-11.5907
▁자극적이고	-11.5907
▁돈아깝고	-11.5908
▁바꿔라	-11.5909
▁(10	-11.5909
▁타이타닉	-11.591
▁남자인	-11.591
▁있었네요	-11.591
▁연예인들	-11.5912
▁이유도	-11.5913
▁흥미진진하게	-11.5914
▁괴롭히	-11.5915
가능	-11.5916
▁정신세계	-11.5916
터지고	-11.5918
▁알차	-11.5919
▁드러나	-11.5922
하시면	-11.5922
▁놀랍고	-11.5923
▁파격적인	-11.5923
▁골라	-11.5924
▁마동석	-11.5925
▁박신혜	-11.5925
▁김승우	-11.5925
▁어색해서	-11.5925
▁전반부	-11.5925
▁기대하며	-11.5926
▁친구에게	-11.5927
들이여	-11.5928
▁공간에서	-11.5928
▁그런걸	-11.5928
▁궁금함	-11.5929
▁전투신	-11.593
▁섹시하고	-11.5931
▁짠하고	-11.5931
--;	-11.5932
여인	-11.5935
가다가	-11.5936
말도안되	-11.5936
▁찍어서	-11.5936
▁유치하게	-11.5936
▁이야기라	-11.5937
금지	-11.5938
▁그레이	-11.5939
▁전문가평점	-11.5939
▁좋아하던	-11.594
▁훅	-11.594
▁데미무어	-11.594
▁브로디	-11.594
▁쓰레기같은영화	-11.5941
▁자전거	-11.5941
운동	-11.5942
▁내인생에	-11.5943
▁너무좋다	-11.5943
▁유선	-11.5944
소설을	-11.5945
▁개봉관	-11.5946
▁재밌냐	-11.5947
▁선사하는	-11.5948
▁신기하고	-11.595
▁문명	-11.5951
시키지	-11.5954
▁지겹고	-11.5955
▁엄지	-11.5956
하신분들	-11.5957
▁사랑과전쟁	-11.5958
필드	-11.5958
▁라스트씬	-11.596
▁실화라	-11.5963
▁청소년들	-11.5963
크리	-11.5963
▁짱인듯	-11.5965
▁광대	-11.5966
나오는데	-11.5967
▁신발	-11.5967
▁어렵고	-11.5968
▁심리묘사가	-11.5968
▁지연	-11.5968
▁대표적	-11.5968
▁잘봤음	-11.5968
본듯	-11.5969
안보고	-11.597
▁오디션	-11.597
북한	-11.5973
쓰는거	-11.5974
해야할지	-11.5977
▁생각한다면	-11.5978
▁상관없이	-11.598
▁손을	-11.5982
▁담으려	-11.5982
▁슬픔과	-11.5983
▁흰	-11.5985
잔잔	-11.5985
▁허니잼	-11.5985
▁수습	-11.5986
▁기대했다	-11.5988
짓을	-11.5988
▁안되냐	-11.5989
▁가족드라마	-11.5991
싸우	-11.5991
▁박힌	-11.5993
▁셀	-11.5999
▁진자	-11.5999
받을만한	-11.6001
▁흡입력이	-11.6001
버려라	-11.6003
▁의리로	-11.6007
▁알고싶다	-11.6011
없을정도로	-11.6012
▁자극적	-11.6013
▁뒷부분	-11.6014
▁매력적이고	-11.6014
▁이용한	-11.6017
▁안보이	-11.602
ᅲᅲᅲᅲᅲᅲ	-11.6023
bbbb	-11.6023
▁와이프	-11.6025
▁이루어지	-11.6025
!!!!!!!!!!	-11.6026
얘	-11.6026
▁사정	-11.6027
▁죽어야	-11.6029
▁당신들	-11.603
▁일본영화가	-11.603
▁보는건	-11.6031
▁만들까	-11.6032
▁모자	-11.6032
달려	-11.6034
▁청춘영화	-11.6035
▁대여	-11.6036
이었네요	-11.6036
▁데이트	-11.6037
▁최후의	-11.6038
▁후회한다	-11.6038
▁달인	-11.6038
▁자료	-11.6038
▁해주길래	-11.6039
▁여자애가	-11.6041
주자	-11.6044
▁꽁	-11.6046
▁명작중	-11.6046
▁ᄂᄂ	-11.6048
▁다르지	-11.6048
▁사랑입니다	-11.6048
셨다	-11.6049
▁갔다가	-11.6049
▁뒤집어	-11.6051
▁입고	-11.6051
▁난감	-11.6053
시리즈는	-11.6053
▁있는건	-11.6056
▁극치를	-11.6057
▁지나치	-11.6058
▁드래곤	-11.6058
▁형이	-11.606
▁소원	-11.6061
래서	-11.6061
해보이는	-11.6062
▁재밌게봤습니다	-11.6062
▁알았어	-11.6063
▁합쳐	-11.6065
나갈	-11.6065
▁대사에	-11.6065
▁두배우	-11.6066
고싶지	-11.6068
▁할것	-11.6068
▁보여지는	-11.6068
드니	-11.6069
주의를	-11.6069
장난치	-11.607
▁의지가	-11.607
일뿐이다	-11.6071
줄려고	-11.6072
▁떄	-11.6076
▁씨리즈	-11.6078
▁싶고	-11.6079
▁전투기	-11.6079
▁질이	-11.6081
물어	-11.6081
▁될거	-11.6085
▁빠지지	-11.6089
싶으면	-11.6091
겠구나	-11.6094
펑펑	-11.6094
랬는데	-11.6096
▁겁나게	-11.6096
정도가	-11.6097
dd	-11.6098
▁개짜증	-11.6099
▁눈물나는	-11.6099
잡아	-11.61
▁담았	-11.6101
▁지루하기도	-11.6101
▁모르겠는	-11.6105
헤헤	-11.6105
J	-11.6106
정부	-11.6108
닭	-11.6109
▁언니가	-11.6109
놓았다	-11.6109
웬	-11.6109
뚝	-11.611
흑흑	-11.611
▁낮은듯	-11.6111
▁야한영화	-11.6111
▁전달하는	-11.6111
▁코믹요소	-11.6112
최고입니다	-11.6112
짝퉁	-11.6112
잭	-11.6113
되며	-11.6113
죽은	-11.6114
해피엔딩	-11.6114
뭥미	-11.6115
흥미진진	-11.6115
충분히	-11.6115
무조건	-11.6115
▁무리가	-11.6116
▁웃을수	-11.6116
이정도면	-11.6116
눈빛	-11.6117
▁좋아해	-11.6117
▁닥	-11.6118
▁것들은	-11.6119
갈기	-11.6119
햇으면	-11.6119
▁볼수없	-11.612
▁바람에	-11.612
▁제목으로	-11.612
젠장	-11.612
발견	-11.6122
중딩	-11.6124
연습	-11.6125
재밌게봤어요	-11.6125
흥미	-11.6127
반복	-11.6128
어릴때	-11.6128
생긴	-11.613
▁갈리는	-11.613
많아서	-11.6131
▁반면	-11.6131
ᄒᄃᄃ	-11.6132
댄스	-11.6133
먹음	-11.6134
된다고	-11.6135
▁기대하게	-11.6135
남긴다	-11.6136
▁풍경이	-11.6136
▁로맨스도	-11.6139
▁대박임	-11.614
재밌습니다	-11.6142
검사	-11.6143
월드	-11.6143
안본다	-11.6147
왕국	-11.6147
▁드라마중에	-11.6148
▁여자배우	-11.6148
▁생각되는	-11.6149
▁상관없는	-11.615
▁배역이	-11.6152
뭐니	-11.6154
▁보라는	-11.6154
ent	-11.6154
재미없어요	-11.6154
많은데	-11.6155
게끔	-11.6158
해주면	-11.6158
▁들인	-11.6159
▁사랑이라는	-11.6159
했을듯	-11.6161
▁그러면서	-11.6165
▁싸워	-11.6165
▁무섭기	-11.6169
▁제인	-11.6169
▁이기는	-11.6171
om	-11.6171
▁어울림	-11.6173
나와라	-11.6173
안나오는	-11.6175
최악이다	-11.6175
▁계신	-11.6176
▁봤었지	-11.6176
말지	-11.6176
▁다른분들	-11.6178
▁좋던데	-11.6178
경험	-11.6183
어찌	-11.6183
bs	-11.6185
남자주인공	-11.6186
▁능가	-11.6187
장면만	-11.6188
마마	-11.619
스턴	-11.6191
본적이	-11.6192
지루해서	-11.6194
억지로	-11.6194
들처럼	-11.6194
답답하고	-11.6194
▁나와는	-11.6196
▁훌륭하	-11.6196
▁그런게	-11.6196
말하는	-11.6196
안맞	-11.6199
하는구나	-11.6203
▁잼써	-11.6204
▁최악인	-11.6208
▁볼만했	-11.621
멋있다	-11.621
▁전작을	-11.6211
▁주인공으로	-11.6212
회사	-11.6216
▁매력과	-11.6217
▁와진짜	-11.6218
해본다	-11.622
▁나오지도	-11.6221
▁춤을	-11.6223
▁없는건가	-11.6225
이미지	-11.6225
24	-11.6226
▁비교할	-11.6226
▁별반개	-11.6227
봣지만	-11.6232
▁친구들이	-11.6233
▁각성	-11.6234
▁그당시에	-11.6236
▁있기	-11.6237
▁좋은작품	-11.6238
▁죽임	-11.624
요소가	-11.624
▁윈	-11.6245
▁웃긴영화	-11.6247
▁이런류	-11.6248
▁^-^	-11.6248
환상	-11.6249
▁일깨워	-11.625
▁만든거지	-11.6251
▁파도	-11.6253
▁딸의	-11.6257
관리	-11.6258
마법사	-11.6258
▁연기력으로	-11.6258
혔다	-11.626
▁미친놈	-11.6261
▁사이에	-11.6262
그랬어요	-11.6264
▁웃기기	-11.6264
▁가만	-11.6271
진부	-11.6271
잼있게	-11.6271
정치	-11.6272
▁출연자들	-11.6273
떠나	-11.6275
안치고	-11.6275
▁드러내	-11.6279
▁애들영화	-11.6284
부른	-11.6284
▁22	-11.6285
라더니	-11.6286
▁선교	-11.6293
대요	-11.6294
▁공감하기	-11.6294
▁연기들이	-11.6295
닼ᄏᄏᄏ	-11.6295
▁온몸	-11.6295
▁선정적	-11.6296
ir	-11.6299
▁별점은	-11.6299
▁비정상	-11.63
▁본다는	-11.6307
▁글자	-11.6307
졸려	-11.6308
▁댓글들	-11.631
짱나	-11.6312
배역	-11.6313
▁되네	-11.6313
다시한번	-11.6316
▁아쉬	-11.6317
▁찾게	-11.6317
▁종이	-11.6317
▁시걸의	-11.6319
어수선	-11.6319
~~~~~~~~	-11.6324
▁몰려	-11.6325
▁보기전	-11.6326
하나도없	-11.6327
▁후반부는	-11.6327
▁밖에는	-11.6331
▁노아	-11.6332
▁가다	-11.6333
▁어디에서	-11.6335
▁한것	-11.6336
▁돋보	-11.6338
걸린	-11.6339
하구나	-11.6344
▁간만	-11.6345
라는건	-11.6345
▁궁금한	-11.6345
▁한국영화에	-11.6347
▁오랫만	-11.6348
▁어려	-11.6351
▁지루할수	-11.6351
;;;;;;	-11.6353
감명깊	-11.6353
선정	-11.6354
▁백번	-11.6354
▁졸다	-11.6354
▁ᅩ	-11.6355
듯해요	-11.6355
▁와나	-11.6356
▁작전	-11.6362
▁잼있네	-11.6362
▁관객은	-11.6362
욬	-11.6364
▁씨지	-11.6365
풀리	-11.6367
▁춤추는	-11.6368
자본	-11.637
▁멀쩡	-11.6372
▁마지막부분	-11.6372
거같네	-11.6374
찾는	-11.6375
와함께	-11.6377
▁이슬람	-11.6377
잼있음	-11.638
▁너무너무너무	-11.638
▁독도	-11.638
▁행복은	-11.6381
▁ᅡ	-11.6382
▁197	-11.6384
▁몸매가	-11.6385
▁기억남는	-11.6385
님께서	-11.6386
▁했다고	-11.6386
▁나눠	-11.6386
▁순수함이	-11.6388
▁고마	-11.6389
▁하는구나	-11.639
아냐	-11.6393
▁쓰래기영화	-11.6393
▁스무살	-11.6394
~~!!!	-11.6395
퀴	-11.6395
딜	-11.6395
딴식으로	-11.6396
뜩	-11.6397
톡	-11.6397
옵	-11.6397
덥	-11.6397
▁모니터	-11.6398
욜	-11.6398
▁1,2,3	-11.6398
ᅦ	-11.6398
킥	-11.6398
똘	-11.6398
돠	-11.6398
▁유튜브	-11.6398
헷	-11.6398
▁GOOD	-11.6398
▁bgm	-11.6398
▁김민희	-11.6398
▁김창완	-11.6398
▁데스노트	-11.6398
▁드라큐라	-11.6398
▁마스터피스	-11.6398
▁시퀀스	-11.6398
▁싱크로율	-11.6398
▁쒸레기	-11.6398
▁안드로메다	-11.6398
▁업그레이드	-11.6398
▁지니어스	-11.6398
댜	-11.6398
빽	-11.6398
윗	-11.6398
▁기승전결	-11.6398
▁담백한	-11.6398
▁알렉스	-11.6398
▁저렴한	-11.6398
Q	-11.6398
▁모자이크	-11.6398
▁비둘기	-11.6398
▁ᄆᄎ	-11.6398
▁디아즈	-11.6398
▁리부트	-11.6398
▁지못미	-11.6398
뿐만아니라	-11.6398
▁제레미	-11.6398
▁블레이드	-11.6398
▁따스한	-11.6398
▁이자벨	-11.6398
▁무한도전	-11.6398
▁김보성	-11.6398
▁인디아나	-11.6398
▁케서방	-11.6398
▁발차기	-11.6398
log	-11.6399
▁밀려온다	-11.6399
불끄고	-11.6399
▁직쏘	-11.6399
▁무성영화	-11.6399
혈압	-11.6399
▁비춰	-11.6399
▁호랑이	-11.6399
▁된장녀	-11.6399
춘향	-11.6399
▁손꼽	-11.6399
▁침몰	-11.64
▁완존	-11.64
▁우주전쟁	-11.64
퍼센트	-11.64
▁필립	-11.64
▁기대했건만	-11.64
▁완결	-11.64
▁흘릴	-11.64
▁초한지	-11.64
▁기다린	-11.64
▁원초적	-11.64
할려	-11.64
▁자유롭	-11.64
▁감안해도	-11.6401
▁복귀	-11.6401
▁안가네	-11.6401
마루	-11.6401
▁아쉬울뿐	-11.6401
▁주고싶은	-11.6401
▁판치는	-11.6401
▁1~2	-11.6402
위주로	-11.6402
급이다	-11.6402
▁뻔하디	-11.6402
▁흑형	-11.6402
생각나서	-11.6402
▁범작	-11.6402
▁죄악	-11.6402
▁잊혀지질	-11.6402
▁장난아니다	-11.6404
▁메이저	-11.6404
▁명언	-11.6404
▁수준낮은	-11.6405
▁인상적이었다	-11.6405
▁시시하다	-11.6405
▁슬펐던	-11.6405
▁물결	-11.6406
▁쌩뚱맞	-11.6406
▁빠른전개	-11.6406
▁있도록	-11.6406
▁밀려오는	-11.6406
▁간단하	-11.6406
▁비교된다	-11.6406
▁아까웠음	-11.6407
▁어쩐지	-11.6407
▁말해준다	-11.6408
▁오드리	-11.6408
▁오래도록	-11.6408
▁끔찍하다	-11.6409
▁아이디	-11.6409
▁모범	-11.6409
▁토토	-11.641
▁재미없었어요	-11.641
▁소외	-11.641
▁안주는데	-11.641
▁국제	-11.6411
여지껏	-11.6411
▁미숙	-11.6411
▁양산	-11.6411
▁애환	-11.6412
▁들었어요	-11.6412
▁이기심	-11.6412
▁기대되네요	-11.6412
▁5~6	-11.6412
▁뻔하지	-11.6413
시간만	-11.6413
▁마이크	-11.6413
▁해주네요	-11.6413
▁개쩐다	-11.6414
▁충동	-11.6414
▁비참하	-11.6414
▁미련	-11.6414
▁산타	-11.6415
▁잠재	-11.6415
▁입은	-11.6416
▁들었습니다	-11.6416
▁진가	-11.6416
▁억지웃음	-11.6416
▁발악	-11.6416
▁주제곡	-11.6417
▁재밌구만	-11.6417
햇어요	-11.6418
▁진국	-11.6419
해야할듯	-11.6419
▁현실적이지	-11.6419
▁거품이	-11.6419
▁느낄수있는	-11.642
▁개졸작	-11.642
때문이	-11.642
▁안가네요	-11.6421
▁저격	-11.6421
▁지루한건	-11.6421
▁압도적인	-11.6422
▁머피	-11.6422
▁괜찮아요	-11.6422
▁“	-11.6422
▁매력적임	-11.6423
▁아름다워요	-11.6423
▁만들어놓고	-11.6424
▁결혼식	-11.6424
▁교훈적인	-11.6425
▁우울해	-11.6425
▁뻔뻔한	-11.6425
▁해설	-11.6426
인생을	-11.6427
▁이어가	-11.6427
▁나이먹고	-11.6427
▁올라갈때	-11.6428
▁기대하고봤는데	-11.6429
▁흥행을	-11.6429
▁베끼	-11.643
학대	-11.6431
▁구지	-11.6432
▁찾았	-11.6432
▁유치원	-11.6432
세기에	-11.6433
▁보내는	-11.6433
▁기대됨	-11.6433
▁다있냐	-11.6434
▁최신	-11.6434
▁특별하	-11.6434
▁건질게	-11.6435
▁찾아봤는데	-11.6436
됬으면	-11.6436
▁아련하고	-11.6437
▁촌스럽	-11.6437
▁않길	-11.6437
▁있을수	-11.6437
▁친구한테	-11.6438
▁시점에서	-11.6438
▁클라이막스	-11.6438
▁류승룡	-11.6438
▁헷갈리	-11.6438
▁없군요	-11.6438
▁자연의	-11.6439
▁유산	-11.6439
▁씁쓸하다	-11.6439
▁넣어서	-11.644
▁되요	-11.644
▁생각났다	-11.6441
▁잘하시고	-11.6441
잘만들었	-11.6441
▁너무하네요	-11.6442
▁사라졌	-11.6442
▁최고예요	-11.6442
▁지르고	-11.6443
대단한	-11.6445
▁나중에는	-11.6446
▁산만하다	-11.6446
▁햇	-11.6449
▁어느하나	-11.6449
▁흐뭇	-11.6449
▁관우	-11.645
▁힘들듯	-11.645
▁유아	-11.645
▁두번이나	-11.6451
▁무한한	-11.6451
봐야하나	-11.6452
▁마지막장면에서	-11.6452
▁주문	-11.6452
▁입가에	-11.6453
▁처음이었다	-11.6454
▁로멘스	-11.6454
▁미성년자	-11.6454
▁민간인	-11.6454
▁시작된다	-11.6454
▁만들어버린	-11.6454
▁안나오네	-11.6455
▁얼굴에	-11.6455
▁나온게	-11.6456
▁고르	-11.6457
▁할말없다	-11.6459
▁종교적인	-11.6461
▁설리	-11.6462
▁역사는	-11.6463
▁흥미진진하다	-11.6464
▁들어오	-11.6465
떡칠	-11.6465
▁따분한	-11.6468
▁대단해	-11.6468
▁반지의제왕	-11.647
▁소장가치	-11.647
이따구	-11.6471
▁예고편에	-11.6472
▁매력있고	-11.6474
▁분은	-11.6474
▁경이로	-11.6476
▁주었다	-11.6476
▁주는데	-11.6476
잇음	-11.6478
▁인연이	-11.6478
▁전투장면	-11.6478
있는척	-11.6479
자체도	-11.6481
▁감독이나	-11.6481
본것중	-11.6483
▁치밀어	-11.6485
누가봐도	-11.6485
▁힐링이	-11.6485
영화였음	-11.6485
▁판타스틱	-11.6486
▁어이상실	-11.6487
▁뜨고	-11.6488
▁4000	-11.6488
▁발랄한	-11.6489
▁됬다	-11.649
지마요	-11.6491
▁괜찬은	-11.6494
▁진상	-11.6494
손가락안에	-11.6496
▁어렷을때	-11.6497
봤다면	-11.6498
▁자격이	-11.6499
▁어디다	-11.6499
▁매력있다	-11.65
▁별로던데	-11.65
▁불쌍하고	-11.6501
▁느낌이었다	-11.6501
▁꽂	-11.6501
▁해소	-11.6502
▁수작이라고	-11.6502
▁않았다면	-11.6502
▁어처구니없는	-11.6503
▁끝났으면	-11.6508
▁전달하려는	-11.651
▁2011	-11.651
댄다	-11.651
기네	-11.6511
▁근대	-11.6511
▁홍보영화	-11.6511
▁93	-11.6511
▁개봉할	-11.6512
것과	-11.6514
보는편인데	-11.6515
울었다	-11.6516
▁하나만으로도	-11.6516
과함께	-11.6519
하지못한	-11.6519
▁아니였다	-11.6522
안나온다	-11.6522
부려	-11.6524
▁만점짜리	-11.6524
▁av	-11.6526
시시하고	-11.6527
▁사람으로써	-11.6527
낮게	-11.653
▁신경을	-11.6531
▁역사와	-11.6532
▁웃기면서	-11.6533
도와주	-11.6533
▁뮤직	-11.6533
이래서	-11.6535
▁but	-11.6535
되었는지	-11.6537
멋대로	-11.6538
▁보시기	-11.654
▁되도	-11.654
보이려고	-11.6543
찾다가	-11.6544
▁압도적	-11.6545
거아닌가	-11.6547
▁조건	-11.6549
▁그치만	-11.6553
▁들어요	-11.6555
▁본인은	-11.6555
▁별로였던	-11.656
▁터질	-11.656
▁바라본	-11.6563
▁침대	-11.6563
이버	-11.6565
▁나오니까	-11.6566
▁안남기는데	-11.6567
▁발연기가	-11.6567
만들어서	-11.6571
차이를	-11.6572
로부터	-11.6577
▁짓게	-11.6577
▁예술이다	-11.6578
타카	-11.6579
▁후로	-11.6579
러스	-11.658
▁느낌과	-11.6581
▁치우	-11.6582
▁연기들도	-11.6582
▁중독성	-11.6582
@@	-11.6582
▁상상도	-11.6586
▁잘어울리는	-11.6586
할것이다	-11.6589
▁일상의	-11.659
▁그중	-11.6591
보여줘서	-11.6591
▁권하고	-11.6591
▁사람한테	-11.6595
▁욕나오	-11.6597
▁스탈	-11.6598
문화를	-11.6599
개막장	-11.66
▁싶을때	-11.66
모토	-11.6602
▁컴	-11.6602
세포	-11.6605
▁수십번	-11.6607
▁충격과	-11.6608
▁미화한	-11.661
적이지만	-11.6613
아래	-11.6613
▁할수있는	-11.6613
▁장수	-11.6615
땡	-11.6618
▁허무맹랑	-11.6619
▁애쓰는	-11.6619
▁영화로만	-11.662
었으나	-11.662
▁고전영화	-11.662
▁빠진다	-11.662
▁누구를	-11.662
싫은	-11.6621
▁조연들의	-11.6622
▁맞는듯	-11.6624
하시는분들	-11.6629
▁빠짐	-11.663
▁흥미도	-11.6633
▁시각으로	-11.6634
▁목소리는	-11.6636
밝혀지	-11.6636
▁말처럼	-11.6638
▁못하면	-11.6641
~~~~~~~~~~~~~~~~	-11.6643
▁이거밖에	-11.6645
▁썻	-11.6648
▁강예원	-11.6649
원작이	-11.665
보는중	-11.665
▁봐야될	-11.6651
▁전개로	-11.6651
▁하기에	-11.6652
▁여명	-11.6654
▁팬이지만	-11.6655
▁버림	-11.6655
▁눈도	-11.6656
하기위해	-11.6656
▁몰입하기	-11.6659
▁된거	-11.6661
팀이	-11.6661
닫	-11.6662
ak	-11.6662
▁알면	-11.6662
▁녀석들	-11.6663
▁약자	-11.6664
▁뻔뻔	-11.6664
▁앵글	-11.6664
▁똥망	-11.6665
쪼	-11.6666
▁이웃	-11.6668
빅	-11.6668
전문	-11.6668
▁소중하	-11.6669
작렬	-11.6669
후반부	-11.6669
▁결과가	-11.667
해봐	-11.667
굉장히	-11.6671
▁나오냐	-11.6672
쵝오	-11.6672
멋짐	-11.6672
귀여운	-11.6672
스트레스	-11.6672
재미있었어요	-11.6672
▁일관성	-11.6674
▁열정을	-11.6674
man	-11.6675
민족	-11.6677
▁판타지영화	-11.6678
아픔	-11.6678
▁무너지	-11.6679
▁안믿	-11.6679
▁찍으	-11.668
▁유작	-11.668
▁닫	-11.668
시키려	-11.6681
▁돌아간	-11.6684
아쉽지만	-11.6684
안됐	-11.6685
점수를	-11.6687
조합	-11.6688
잘만든	-11.6689
▁잠자	-11.6689
낚시	-11.669
▁줬어	-11.6692
분량	-11.6693
▁근거	-11.6695
▁뭉클한	-11.6695
ia	-11.6695
▁배우진	-11.6696
시사회	-11.6696
스럽네	-11.6697
현실성	-11.6698
▁소설로	-11.6699
▁짓거리	-11.6701
▁기준이	-11.6703
▁싸울	-11.6704
편이랑	-11.6704
같았음	-11.6704
▁그녀들	-11.6706
▁심어	-11.6706
처음부터	-11.6707
▁눈은	-11.6708
거라면	-11.6711
젊은	-11.6716
▁흘렸	-11.6717
▁살아있다	-11.672
지루했다	-11.672
▁미남	-11.672
▁전문가들	-11.6723
▁시계	-11.6723
▁가요	-11.6726
▁생기는	-11.6726
▁싼	-11.6726
어휴	-11.6727
▁비극이	-11.6731
모르게	-11.6731
▁힘들고	-11.6733
영화였습니다	-11.6733
▁하겠다	-11.6735
▁놔	-11.6735
스틱	-11.6735
다음에	-11.6738
▁아웃	-11.6739
▁보내고	-11.674
▁아름다운영화	-11.674
행위	-11.6741
▁갑작스	-11.6742
하려다	-11.6744
모르겟	-11.675
관에서	-11.6753
▁만든다는	-11.6755
▁나두	-11.6756
어지네요	-11.6756
▁느낌으로	-11.6758
양심	-11.6758
▁무난	-11.6763
▁원작만화	-11.6764
▁되니	-11.6766
▁행동들	-11.6767
▁호흡이	-11.6767
조선	-11.6767
▁황당하	-11.6767
▁답답하게	-11.677
▁절절	-11.6771
▁결말만	-11.6774
지않을까	-11.6774
▁그저그렇	-11.6775
할꺼면	-11.6776
▁창피	-11.6782
받았다	-11.6785
▁볼만한영화	-11.6786
줄아나	-11.6788
▁놀라는	-11.6788
▁살아있	-11.6789
▁화나는	-11.6789
▁볼만해	-11.679
▁카드	-11.6792
위해서	-11.6793
▁읽어보	-11.6796
▁연기며	-11.6797
▁희생을	-11.6804
▁낯설	-11.6807
차이가	-11.6807
▁없기	-11.6808
진심으로	-11.6809
▁시간아까운	-11.6809
편인데	-11.6813
▁저딴	-11.6816
기대를	-11.6817
▁이들에게	-11.6818
▁대부분의	-11.682
▁사자	-11.682
▁모습들	-11.6821
떨어진다	-11.6821
절정	-11.6822
▁남자랑	-11.6825
되어있는	-11.6826
꺼임	-11.6829
나는영화	-11.6836
▁첨보네	-11.6838
▁말하고자하는	-11.6839
좋아하	-11.6842
▁헌신	-11.6843
▁의미로	-11.6844
▁잘생겼다	-11.6844
▁나치	-11.6846
조작	-11.6847
▁책은	-11.6849
▁노골적	-11.685
넼ᄏᄏ	-11.685
빠지고	-11.6852
▁실망스럽	-11.6861
않는다	-11.6861
▁좋겠네	-11.6862
들여서	-11.6863
부모님	-11.6863
▁영화보단	-11.6864
답답한	-11.6866
▁작품성을	-11.6866
▁한회	-11.6867
젊	-11.6869
▁치면	-11.6871
▁느낀점	-11.6873
▁시절에	-11.6874
▁됐지	-11.6875
내용에	-11.6877
▁안타까울	-11.6879
▁재치	-11.688
▁숨막히	-11.6881
▁봤는데요	-11.6881
▁본다고	-11.6882
책을	-11.6885
▁엄마를	-11.6885
틀리	-11.6889
슬퍼	-11.6892
▁똑같아	-11.6895
▁가질	-11.6899
!!♥	-11.6902
목숨	-11.6905
▁섬뜩	-11.6907
▁공존	-11.6908
왕자	-11.6912
▁갖추	-11.6913
유치한	-11.6914
정희	-11.6914
▁군인들	-11.6914
카드	-11.6915
▁중국이	-11.6915
▁어린애	-11.6917
▁on	-11.6922
횽	-11.6923
실망이다	-11.6925
애들도	-11.6929
▁담백하	-11.6932
▁윌리엄	-11.6934
▁존나게	-11.6934
생기면	-11.6935
떨어져	-11.6936
날에	-11.6937
펀	-11.6944
펙	-11.6947
▁괴롭	-11.6949
륙	-11.6951
팽	-11.6951
븐	-11.6952
us	-11.6952
▁변하지	-11.6952
▁삽입	-11.6953
삽	-11.6953
쭈	-11.6953
뉘	-11.6953
셜	-11.6954
뻘	-11.6954
”	-11.6954
▁남녀노소	-11.6954
▁러브레터	-11.6954
▁말코비치	-11.6954
▁맷데이먼	-11.6954
▁머리카락	-11.6954
▁샌들러	-11.6954
▁서커스	-11.6954
▁스나입스	-11.6954
▁시덥잖은	-11.6954
▁어마어마한	-11.6954
▁왤캐	-11.6954
▁조지클루니	-11.6954
▁존쿠삭	-11.6954
▁토요명화	-11.6954
떴	-11.6954
샬	-11.6954
읎	-11.6954
→	-11.6954
▁강우석	-11.6954
▁김소연	-11.6954
▁김옥빈	-11.6954
▁유부녀	-11.6954
▁포커스	-11.6954
갸	-11.6954
쁠	-11.6954
▁어우러져	-11.6954
+_+	-11.6954
▁박한별	-11.6954
▁서태지	-11.6954
▁팬심으로	-11.6954
▁야쿠자	-11.6954
▁과언이	-11.6954
▁송중기	-11.6954
▁호프만	-11.6954
▁모호한	-11.6954
▁나뿐인가	-11.6954
▁아쉬웠던	-11.6954
.,.,.,.,.	-11.6954
▁순진한	-11.6954
▁저능아	-11.6954
▁콧물	-11.6954
▁평점조절위원회	-11.6954
▁웨스턴	-11.6954
:-)	-11.6954
▁프리퀄	-11.6954
▁나비효과	-11.6954
▁자비에	-11.6954
▁구로사와	-11.6954
▁억압	-11.6954
▁쌍둥이	-11.6954
▁길들여	-11.6954
▁부끄럽다	-11.6954
▁파트너	-11.6954
▁지금에서야	-11.6955
▁마디로	-11.6955
▁인디언	-11.6955
▁시간가는줄모르고	-11.6955
▁골때리는	-11.6955
▁바둑	-11.6955
▁앤딩	-11.6955
▁특정	-11.6955
▁설득	-11.6955
▁감명깊은	-11.6955
▁흔하디	-11.6955
▁Best	-11.6955
▁자극적이지	-11.6955
▁또하나의	-11.6956
▁위협	-11.6956
▁시어머니	-11.6956
▁탱고	-11.6956
▁무고한	-11.6956
▁매혹적인	-11.6956
▁작정	-11.6956
▁이정진	-11.6956
▁별점테러	-11.6956
▁표출	-11.6957
▁하모니	-11.6957
▁변함없	-11.6957
▁폐지해라	-11.6957
▁추격전	-11.6957
▁으휴	-11.6957
▁코난이	-11.6957
▁기타노	-11.6958
드럽게	-11.6958
▁닿지	-11.6959
▁타잔	-11.6959
특별히	-11.6959
▁때리는	-11.6959
▁봐야겠어요	-11.6959
▁빠져들었다	-11.696
▁재밌긴한데	-11.696
▁빌린	-11.6961
▁감상평	-11.6961
▁중학생때	-11.6961
▁몸짓	-11.6962
▁길거리	-11.6962
▁허각	-11.6962
▁루크	-11.6962
▁불과하다	-11.6962
▁때로는	-11.6963
▁발암	-11.6963
▁부패	-11.6964
▁여느	-11.6964
▁조잡하다	-11.6964
본사람은	-11.6965
▁생각됩니다	-11.6965
▁울버린	-11.6965
▁웨스	-11.6965
▁아침부터	-11.6965
▁생각이든다	-11.6965
▁인내력	-11.6965
▁온통	-11.6965
▁이제껏	-11.6966
▁보았어요	-11.6966
▁공감되지	-11.6966
▁소련	-11.6967
▁맞먹는	-11.6967
▁처절하게	-11.6967
▁불교	-11.6968
▁잃게	-11.6968
▁그리움	-11.6969
▁볼수있어서	-11.6969
▁격투씬	-11.6971
▁아니자나	-11.6971
▁노골적으로	-11.6971
▁좋았을걸	-11.6971
▁한두번	-11.6972
▁만들었어	-11.6972
▁말장난	-11.6972
;;;;;	-11.6972
주고싶지만	-11.6972
▁결투	-11.6973
▁첩보물	-11.6974
▁감안하고	-11.6975
▁섹시하다	-11.6976
▁지존	-11.6976
▁질린다	-11.6977
▁좋아졌	-11.6977
▁티비판	-11.6977
▁월화	-11.6978
▁참신하다	-11.6978
▁다섯개	-11.6978
▁무엇일까	-11.6978
번이상	-11.6979
▁진실된	-11.6979
▁꾀	-11.6979
▁안좋아하는데	-11.698
▁일어나서	-11.698
▁좋은듯	-11.6981
▁말던가	-11.6982
▁중국판	-11.6984
▁대사로	-11.6984
▁안나왔으면	-11.6985
생명체	-11.6985
▁불편했다	-11.6986
▁흘러간다	-11.6986
▁다좋은데	-11.6987
▁익숙해	-11.6987
▁늘어지고	-11.6988
분쯤	-11.6988
▁놀랬다	-11.6988
▁메시지도	-11.6988
봐야됨	-11.6988
▁위치	-11.6989
뻔했네	-11.6989
▁봤어야	-11.6989
▁별로였어요	-11.6989
욬ᄏᄏᄏ	-11.699
▁공군	-11.699
▁들었던	-11.699
▁있을지	-11.6991
▁예쁘네요	-11.6991
▁건담	-11.6992
▁방식으로	-11.6993
▁후회합니다	-11.6993
▁짜증날	-11.6993
▁멋있네요	-11.6994
있으며	-11.6996
▁총격전	-11.6996
으루	-11.6997
▁다른데	-11.6997
▁했어도	-11.6997
▁연기잘하는	-11.6998
▁보고있습니다	-11.6998
종류	-11.6999
▁슬펐어요	-11.6999
겄다	-11.7
▁볼만했던	-11.7002
봐야되	-11.7002
▁필요없이	-11.7003
모여서	-11.7003
▁어린애들	-11.7003
▁보시라	-11.7004
▁딱봐도	-11.7004
▁지루하긴	-11.7005
▁요구	-11.7005
▁별로였는데	-11.7006
▁색다르고	-11.7008
▁시끄럽고	-11.7008
▁보지마요	-11.7008
▁이민호	-11.7011
▁우리를	-11.7011
싶었지만	-11.7011
▁공각기동대	-11.7013
▁썅	-11.7013
▁다시보기로	-11.7014
▁분류	-11.7014
▁남길	-11.7015
▁해석이	-11.7015
▁남아요	-11.7015
▁역사가	-11.7016
▁꼬집	-11.7016
▁재미짐	-11.7018
취급	-11.7019
▁언제적	-11.7019
▁추천해요	-11.7019
▁원망	-11.702
▁스크린에서	-11.7022
▁빌려서	-11.7023
▁한명도	-11.7023
▁힘내	-11.7023
▁또보고싶다	-11.7025
▁치부	-11.7025
▁아이에게	-11.7026
▁못해도	-11.7027
ck	-11.7028
▁상상력에	-11.7028
▁꼭봐야	-11.703
당당히	-11.703
▁조여정	-11.7031
▁코믹도	-11.7032
▁문제다	-11.7033
짜증남	-11.7033
아가씨	-11.7033
▁다큐로	-11.7034
▁세심	-11.7038
▁후배	-11.7039
화된	-11.7041
▁제목보고	-11.7041
못생김	-11.7041
리얼	-11.7043
▁악어	-11.7043
내린	-11.7043
겼다	-11.7044
우월주의	-11.7046
▁패스	-11.7046
▁극장판중	-11.7046
▁비비	-11.7046
▁풀어나가	-11.7047
▁단막극	-11.7047
▁걸작을	-11.7048
▁우상	-11.7048
공연	-11.7049
▁옳은	-11.7049
할래	-11.705
▁난잡한	-11.7051
▁없으면서	-11.7052
▁느껴져	-11.7053
▁표현력	-11.7053
▁처음부터끝까지	-11.7053
즈음	-11.7053
▁따뜻해지	-11.7053
하하하하	-11.7053
시리	-11.7055
▁와중에	-11.7055
재석	-11.7055
▁때까지	-11.7057
▁왜그러	-11.7059
????????????????	-11.7059
싸가지	-11.706
▁대단했다	-11.7062
▁전율을	-11.7062
▁캡	-11.7064
▁아깝게	-11.7066
▁재미있지	-11.7067
다행	-11.7068
▁불사	-11.707
▁아니구나	-11.7071
▁태권도	-11.7071
▁유해진	-11.7072
미드	-11.7076
▁성인영화	-11.7078
▁영화같음	-11.7079
▁마지막장면은	-11.7079
▁맷	-11.7081
▁얼마전	-11.7081
여자는	-11.7082
▁클럽	-11.7082
▁흔해빠	-11.7083
되었습니다	-11.7083
짓거리	-11.7085
엄마가	-11.7085
▁나인	-11.7086
공장	-11.7086
▁드러나는	-11.7088
▁요원	-11.7089
있었지만	-11.709
재미도없고	-11.7091
▁엽기적인	-11.7091
▁상황들	-11.7092
직한	-11.7092
▁법을	-11.7094
▁원작자	-11.7096
▁전쟁은	-11.7097
▁재미없으면	-11.7097
▁스캔들	-11.7098
▁붕괴	-11.7098
▁같았는데	-11.7099
▁고대	-11.7101
넣은	-11.7101
[...]
